#ifdef __has_attribute
#define HAVE_ATTRIBUTE(x) __has_attribute(x)
#else
#define HAVE_ATTRIBUTE(x) 0
#endif
#if HAVE_ATTRIBUTE(aligned) || (defined(__GNUC__) && !defined(__clang__))
#define DATA_ALIGN_ATTRIBUTE __attribute__((aligned(4)))
#else
#define DATA_ALIGN_ATTRIBUTE
#endif

const unsigned char model_data[] DATA_ALIGN_ATTRIBUTE = {
  0x1c, 0x00, 0x00, 0x00, 0x54, 0x46, 0x4c, 0x33, 0x14, 0x00, 0x20, 0x00,
  0x04, 0x00, 0x08, 0x00, 0x0c, 0x00, 0x10, 0x00, 0x14, 0x00, 0x00, 0x00,
  0x18, 0x00, 0x1c, 0x00, 0x14, 0x00, 0x00, 0x00, 0x03, 0x00, 0x00, 0x00,
  0x18, 0x00, 0x00, 0x00, 0x20, 0x00, 0x00, 0x00, 0x2c, 0x01, 0x00, 0x00,
  0x20, 0x00, 0x00, 0x00, 0xd4, 0x00, 0x00, 0x00, 0x50, 0x00, 0x00, 0x00,
  0x02, 0x00, 0x00, 0x00, 0x18, 0x04, 0x00, 0x00, 0xec, 0x01, 0x00, 0x00,
  0x01, 0x00, 0x00, 0x00, 0x30, 0x01, 0x00, 0x00, 0x0d, 0x00, 0x00, 0x00,
  0x50, 0x2c, 0x00, 0x00, 0x4c, 0x2c, 0x00, 0x00, 0x80, 0x2b, 0x00, 0x00,
  0xf0, 0x2a, 0x00, 0x00, 0xf0, 0x29, 0x00, 0x00, 0xa0, 0x11, 0x00, 0x00,
  0x4c, 0x05, 0x00, 0x00, 0x78, 0x04, 0x00, 0x00, 0x30, 0x2c, 0x00, 0x00,
  0x2c, 0x2c, 0x00, 0x00, 0x28, 0x2c, 0x00, 0x00, 0x24, 0x2c, 0x00, 0x00,
  0xb8, 0x00, 0x00, 0x00, 0x01, 0x00, 0x00, 0x00, 0x10, 0x00, 0x00, 0x00,
  0x00, 0x00, 0x0a, 0x00, 0x10, 0x00, 0x0c, 0x00, 0x08, 0x00, 0x04, 0x00,
  0x0a, 0x00, 0x00, 0x00, 0x0c, 0x00, 0x00, 0x00, 0x1c, 0x00, 0x00, 0x00,
  0x20, 0x00, 0x00, 0x00, 0x0f, 0x00, 0x00, 0x00, 0x73, 0x65, 0x72, 0x76,
  0x69, 0x6e, 0x67, 0x5f, 0x64, 0x65, 0x66, 0x61, 0x75, 0x6c, 0x74, 0x00,
  0x01, 0x00, 0x00, 0x00, 0x14, 0x00, 0x00, 0x00, 0x01, 0x00, 0x00, 0x00,
  0x24, 0x00, 0x00, 0x00, 0x08, 0x00, 0x0c, 0x00, 0x08, 0x00, 0x04, 0x00,
  0x08, 0x00, 0x00, 0x00, 0x0a, 0x00, 0x00, 0x00, 0x04, 0x00, 0x00, 0x00,
  0x07, 0x00, 0x00, 0x00, 0x64, 0x65, 0x6e, 0x73, 0x65, 0x5f, 0x32, 0x00,
  0x1a, 0xd5, 0xff, 0xff, 0x04, 0x00, 0x00, 0x00, 0x0b, 0x00, 0x00, 0x00,
  0x64, 0x65, 0x6e, 0x73, 0x65, 0x5f, 0x69, 0x6e, 0x70, 0x75, 0x74, 0x00,
  0x01, 0x00, 0x00, 0x00, 0x0c, 0x00, 0x00, 0x00, 0x08, 0x00, 0x0c, 0x00,
  0x04, 0x00, 0x08, 0x00, 0x08, 0x00, 0x00, 0x00, 0x08, 0x00, 0x00, 0x00,
  0x0c, 0x00, 0x00, 0x00, 0x13, 0x00, 0x00, 0x00, 0x6d, 0x69, 0x6e, 0x5f,
  0x72, 0x75, 0x6e, 0x74, 0x69, 0x6d, 0x65, 0x5f, 0x76, 0x65, 0x72, 0x73,
  0x69, 0x6f, 0x6e, 0x00, 0x66, 0xd5, 0xff, 0xff, 0x04, 0x00, 0x00, 0x00,
  0x10, 0x00, 0x00, 0x00, 0x31, 0x2e, 0x35, 0x2e, 0x30, 0x00, 0x00, 0x00,
  0x00, 0x00, 0x00, 0x00, 0x00, 0x00, 0x00, 0x00, 0x0f, 0x00, 0x00, 0x00,
  0x4d, 0x4c, 0x49, 0x52, 0x20, 0x43, 0x6f, 0x6e, 0x76, 0x65, 0x72, 0x74,
  0x65, 0x64, 0x2e, 0x00, 0x00, 0x00, 0x0e, 0x00, 0x18, 0x00, 0x04, 0x00,
  0x08, 0x00, 0x0c, 0x00, 0x10, 0x00, 0x14, 0x00, 0x0e, 0x00, 0x00, 0x00,
  0x14, 0x00, 0x00, 0x00, 0x40, 0x00, 0x00, 0x00, 0x44, 0x00, 0x00, 0x00,
  0x48, 0x00, 0x00, 0x00, 0x58, 0x00, 0x00, 0x00, 0x0b, 0x00, 0x00, 0x00,
  0xb0, 0x2a, 0x00, 0x00, 0x64, 0x2a, 0x00, 0x00, 0xfc, 0x29, 0x00, 0x00,
  0x7c, 0x29, 0x00, 0x00, 0x6c, 0x28, 0x00, 0x00, 0x18, 0x10, 0x00, 0x00,
  0xc4, 0x03, 0x00, 0x00, 0xb4, 0x02, 0x00, 0x00, 0xc0, 0x01, 0x00, 0x00,
  0x08, 0x01, 0x00, 0x00, 0x80, 0x00, 0x00, 0x00, 0x01, 0x00, 0x00, 0x00,
  0x00, 0x00, 0x00, 0x00, 0x01, 0x00, 0x00, 0x00, 0x0a, 0x00, 0x00, 0x00,
  0x04, 0x00, 0x00, 0x00, 0x38, 0x02, 0x00, 0x00, 0x68, 0x01, 0x00, 0x00,
  0xb4, 0x00, 0x00, 0x00, 0x1c, 0x00, 0x00, 0x00, 0x04, 0x00, 0x00, 0x00,
  0x6d, 0x61, 0x69, 0x6e, 0x00, 0x00, 0x0e, 0x00, 0x18, 0x00, 0x08, 0x00,
  0x0c, 0x00, 0x10, 0x00, 0x07, 0x00, 0x14, 0x00, 0x0e, 0x00, 0x00, 0x00,
  0x00, 0x00, 0x00, 0x09, 0x01, 0x00, 0x00, 0x00, 0x1c, 0x00, 0x00, 0x00,
  0x10, 0x00, 0x00, 0x00, 0x04, 0x00, 0x00, 0x00, 0x42, 0xd6, 0xff, 0xff,
  0x00, 0x00, 0x80, 0x3f, 0x01, 0x00, 0x00, 0x00, 0x0a, 0x00, 0x00, 0x00,
  0x01, 0x00, 0x00, 0x00, 0x09, 0x00, 0x00, 0x00, 0xe4, 0xfd, 0xff, 0xff,
  0x19, 0x00, 0x00, 0x00, 0x00, 0x00, 0x00, 0x19, 0x01, 0x00, 0x00, 0x00,
  0x0c, 0xd6, 0xff, 0xff, 0x14, 0x00, 0x00, 0x00, 0x0b, 0x00, 0x00, 0x00,
  0x18, 0x00, 0x00, 0x00, 0x40, 0x00, 0x00, 0x00, 0x30, 0x00, 0x00, 0x00,
  0x02, 0x00, 0x00, 0x00, 0x01, 0x00, 0x00, 0x00, 0x02, 0x00, 0x00, 0x00,
  0x19, 0x00, 0x00, 0x00, 0x53, 0x74, 0x61, 0x74, 0x65, 0x66, 0x75, 0x6c,
  0x50, 0x61, 0x72, 0x74, 0x69, 0x74, 0x69, 0x6f, 0x6e, 0x65, 0x64, 0x43,
  0x61, 0x6c, 0x6c, 0x3a, 0x30, 0x00, 0x00, 0x00, 0x02, 0x00, 0x00, 0x00,
  0xff, 0xff, 0xff, 0xff, 0x02, 0x00, 0x00, 0x00, 0xf0, 0xd5, 0xff, 0xff,
  0x5e, 0xff, 0xff, 0xff, 0x00, 0x00, 0x00, 0x08, 0x18, 0x00, 0x00, 0x00,
  0x0c, 0x00, 0x00, 0x00, 0x04, 0x00, 0x00, 0x00, 0x08, 0xd6, 0xff, 0xff,
  0x01, 0x00, 0x00, 0x00, 0x09, 0x00, 0x00, 0x00, 0x03, 0x00, 0x00, 0x00,
  0x08, 0x00, 0x00, 0x00, 0x06, 0x00, 0x00, 0x00, 0x01, 0x00, 0x00, 0x00,
  0x90, 0xd6, 0xff, 0xff, 0x14, 0x00, 0x00, 0x00, 0x0a, 0x00, 0x00, 0x00,
  0x18, 0x00, 0x00, 0x00, 0x5c, 0x00, 0x00, 0x00, 0x4c, 0x00, 0x00, 0x00,
  0x02, 0x00, 0x00, 0x00, 0x01, 0x00, 0x00, 0x00, 0x02, 0x00, 0x00, 0x00,
  0x34, 0x00, 0x00, 0x00, 0x73, 0x65, 0x71, 0x75, 0x65, 0x6e, 0x74, 0x69,
  0x61, 0x6c, 0x2f, 0x64, 0x65, 0x6e, 0x73, 0x65, 0x5f, 0x32, 0x2f, 0x4d,
  0x61, 0x74, 0x4d, 0x75, 0x6c, 0x3b, 0x73, 0x65, 0x71, 0x75, 0x65, 0x6e,
  0x74, 0x69, 0x61, 0x6c, 0x2f, 0x64, 0x65, 0x6e, 0x73, 0x65, 0x5f, 0x32,
  0x2f, 0x42, 0x69, 0x61, 0x73, 0x41, 0x64, 0x64, 0x00, 0x00, 0x00, 0x00,
  0x02, 0x00, 0x00, 0x00, 0xff, 0xff, 0xff, 0xff, 0x02, 0x00, 0x00, 0x00,
  0x64, 0xd7, 0xff, 0xff, 0x00, 0x00, 0x0e, 0x00, 0x14, 0x00, 0x00, 0x00,
  0x08, 0x00, 0x0c, 0x00, 0x07, 0x00, 0x10, 0x00, 0x0e, 0x00, 0x00, 0x00,
  0x00, 0x00, 0x00, 0x08, 0x1c, 0x00, 0x00, 0x00, 0x10, 0x00, 0x00, 0x00,
  0x04, 0x00, 0x00, 0x00, 0x32, 0xff, 0xff, 0xff, 0x00, 0x00, 0x00, 0x01,
  0x01, 0x00, 0x00, 0x00, 0x08, 0x00, 0x00, 0x00, 0x03, 0x00, 0x00, 0x00,
  0x07, 0x00, 0x00, 0x00, 0x05, 0x00, 0x00, 0x00, 0x02, 0x00, 0x00, 0x00,
  0x44, 0xd7, 0xff, 0xff, 0x14, 0x00, 0x00, 0x00, 0x09, 0x00, 0x00, 0x00,
  0x18, 0x00, 0x00, 0x00, 0x74, 0x00, 0x00, 0x00, 0x64, 0x00, 0x00, 0x00,
  0x02, 0x00, 0x00, 0x00, 0x01, 0x00, 0x00, 0x00, 0x10, 0x00, 0x00, 0x00,
  0x4c, 0x00, 0x00, 0x00, 0x73, 0x65, 0x71, 0x75, 0x65, 0x6e, 0x74, 0x69,
  0x61, 0x6c, 0x2f, 0x64, 0x65, 0x6e, 0x73, 0x65, 0x5f, 0x31, 0x2f, 0x4d,
  0x61, 0x74, 0x4d, 0x75, 0x6c, 0x3b, 0x73, 0x65, 0x71, 0x75, 0x65, 0x6e,
  0x74, 0x69, 0x61, 0x6c, 0x2f, 0x64, 0x65, 0x6e, 0x73, 0x65, 0x5f, 0x31,
  0x2f, 0x52, 0x65, 0x6c, 0x75, 0x3b, 0x73, 0x65, 0x71, 0x75, 0x65, 0x6e,
  0x74, 0x69, 0x61, 0x6c, 0x2f, 0x64, 0x65, 0x6e, 0x73, 0x65, 0x5f, 0x31,
  0x2f, 0x42, 0x69, 0x61, 0x73, 0x41, 0x64, 0x64, 0x00, 0x00, 0x00, 0x00,
  0x02, 0x00, 0x00, 0x00, 0xff, 0xff, 0xff, 0xff, 0x10, 0x00, 0x00, 0x00,
  0x30, 0xd8, 0xff, 0xff, 0x00, 0x00, 0x0e, 0x00, 0x16, 0x00, 0x00, 0x00,
  0x08, 0x00, 0x0c, 0x00, 0x07, 0x00, 0x10, 0x00, 0x0e, 0x00, 0x00, 0x00,
  0x00, 0x00, 0x00, 0x08, 0x24, 0x00, 0x00, 0x00, 0x18, 0x00, 0x00, 0x00,
  0x0c, 0x00, 0x00, 0x00, 0x00, 0x00, 0x06, 0x00, 0x08, 0x00, 0x07, 0x00,
  0x06, 0x00, 0x00, 0x00, 0x00, 0x00, 0x00, 0x01, 0x01, 0x00, 0x00, 0x00,
  0x07, 0x00, 0x00, 0x00, 0x03, 0x00, 0x00, 0x00, 0x00, 0x00, 0x00, 0x00,
  0x04, 0x00, 0x00, 0x00, 0x03, 0x00, 0x00, 0x00, 0x0c, 0x00, 0x10, 0x00,
  0x0b, 0x00, 0x00, 0x00, 0x0c, 0x00, 0x04, 0x00, 0x0c, 0x00, 0x00, 0x00,
  0x09, 0x00, 0x00, 0x00, 0x00, 0x00, 0x00, 0x09, 0x01, 0x00, 0x00, 0x00,
  0x34, 0xd8, 0xff, 0xff, 0x14, 0x00, 0x00, 0x00, 0x08, 0x00, 0x00, 0x00,
  0x18, 0x00, 0x00, 0x00, 0x6c, 0x00, 0x00, 0x00, 0x5c, 0x00, 0x00, 0x00,
  0x02, 0x00, 0x00, 0x00, 0x01, 0x00, 0x00, 0x00, 0x30, 0x00, 0x00, 0x00,
  0x46, 0x00, 0x00, 0x00, 0x73, 0x65, 0x71, 0x75, 0x65, 0x6e, 0x74, 0x69,
  0x61, 0x6c, 0x2f, 0x64, 0x65, 0x6e, 0x73, 0x65, 0x2f, 0x4d, 0x61, 0x74,
  0x4d, 0x75, 0x6c, 0x3b, 0x73, 0x65, 0x71, 0x75, 0x65, 0x6e, 0x74, 0x69,
  0x61, 0x6c, 0x2f, 0x64, 0x65, 0x6e, 0x73, 0x65, 0x2f, 0x52, 0x65, 0x6c,
  0x75, 0x3b, 0x73, 0x65, 0x71, 0x75, 0x65, 0x6e, 0x74, 0x69, 0x61, 0x6c,
  0x2f, 0x64, 0x65, 0x6e, 0x73, 0x65, 0x2f, 0x42, 0x69, 0x61, 0x73, 0x41,
  0x64, 0x64, 0x00, 0x00, 0x02, 0x00, 0x00, 0x00, 0xff, 0xff, 0xff, 0xff,
  0x30, 0x00, 0x00, 0x00, 0x44, 0xd8, 0xff, 0xff, 0x12, 0xd9, 0xff, 0xff,
  0x04, 0x00, 0x00, 0x00, 0x80, 0x00, 0x00, 0x00, 0x33, 0xc8, 0x87, 0x3e,
  0x48, 0x8d, 0xde, 0xbe, 0x73, 0x98, 0x74, 0x3c, 0x01, 0xcb, 0xfd, 0xbe,
  0x2f, 0xda, 0x7f, 0xbe, 0x60, 0x67, 0x4a, 0x3e, 0x2c, 0x98, 0xde, 0x3e,
  0xf1, 0x58, 0x2b, 0x3e, 0xef, 0x9a, 0xe1, 0x3e, 0x5b, 0xbb, 0x98, 0xbe,
  0xd0, 0x3b, 0xf6, 0xbb, 0xdb, 0xe2, 0xc6, 0x3e, 0xad, 0xc9, 0x11, 0xbc,
  0x49, 0x4f, 0x8f, 0x3e, 0xe5, 0x4c, 0x9c, 0xbe, 0x6a, 0x20, 0x82, 0xbe,
  0x91, 0xd3, 0x25, 0x3e, 0xd8, 0x81, 0x9b, 0xbe, 0x06, 0x41, 0x13, 0xbe,
  0x47, 0xbf, 0x0c, 0xbf, 0xbc, 0x0e, 0xf0, 0xbc, 0x10, 0x0e, 0xef, 0xbe,
  0xac, 0x44, 0x8b, 0xbe, 0xa3, 0x23, 0x8b, 0x3c, 0xbc, 0xd6, 0xf0, 0x3e,
  0x23, 0xed, 0x87, 0x3e, 0x42, 0x5c, 0x11, 0xbe, 0x6a, 0x0b, 0xed, 0xbe,
  0xb0, 0xac, 0xbd, 0x3e, 0x4f, 0x21, 0xd0, 0xbe, 0x93, 0x3b, 0x9b, 0xbe,
  0xd3, 0x24, 0x9b, 0xbe, 0x82, 0xd9, 0xff, 0xff, 0x10, 0x00, 0x00, 0x00,
  0x07, 0x00, 0x00, 0x00, 0x14, 0x00, 0x00, 0x00, 0x30, 0x00, 0x00, 0x00,
  0x02, 0x00, 0x00, 0x00, 0x02, 0x00, 0x00, 0x00, 0x10, 0x00, 0x00, 0x00,
  0x19, 0x00, 0x00, 0x00, 0x73, 0x65, 0x71, 0x75, 0x65, 0x6e, 0x74, 0x69,
  0x61, 0x6c, 0x2f, 0x64, 0x65, 0x6e, 0x73, 0x65, 0x5f, 0x32, 0x2f, 0x4d,
  0x61, 0x74, 0x4d, 0x75, 0x6c, 0x00, 0x00, 0x00, 0x14, 0xd9, 0xff, 0xff,
  0xe2, 0xd9, 0xff, 0xff, 0x04, 0x00, 0x00, 0x00, 0x00, 0x0c, 0x00, 0x00,
  0xe3, 0xa8, 0xff, 0x3d, 0xe2, 0x11, 0xc9, 0xbd, 0x78, 0x36, 0x3c, 0x3d,
  0xc9, 0x95, 0xa3, 0xbd, 0x91, 0x06, 0x85, 0x3e, 0x28, 0xca, 0xa0, 0xbe,
  0xd0, 0x4d, 0x4b, 0x3e, 0xa9, 0x0b, 0xeb, 0xbe, 0xac, 0xe3, 0xf4, 0x3d,
  0x90, 0xb5, 0x8c, 0x3c, 0xd8, 0xa4, 0xa7, 0x3d, 0xcd, 0xc5, 0x4c, 0xbe,
  0x14, 0x49, 0xd0, 0x3d, 0xdd, 0x7c, 0x29, 0xbd, 0x6d, 0x3b, 0x90, 0x3e,
  0x80, 0x73, 0xb6, 0xbe, 0xfc, 0x3b, 0xe0, 0xbd, 0x71, 0xad, 0x8b, 0x3e,
  0x89, 0xe9, 0x8e, 0xbe, 0x18, 0x21, 0x8d, 0xbd, 0x0e, 0x88, 0xde, 0x3d,
  0x3d, 0x98, 0x40, 0x3d, 0x6e, 0x0d, 0xf9, 0xbd, 0x86, 0xae, 0xac, 0xbd,
  0xbc, 0x18, 0x8b, 0x3d, 0xfe, 0x5d, 0x59, 0x3e, 0xda, 0xf5, 0x27, 0x3e,
  0x5d, 0x9c, 0x20, 0xbe, 0xab, 0x87, 0xab, 0xbe, 0x48, 0x82, 0xa1, 0xbd,
  0xe6, 0xca, 0x99, 0xbd, 0x98, 0x2b, 0x41, 0x3d, 0xe3, 0xae, 0x39, 0xbd,
  0x06, 0xa5, 0x56, 0xbe, 0x20, 0xfd, 0xa1, 0x3c, 0x2c, 0x64, 0x11, 0x3e,
  0xc2, 0x14, 0x6f, 0x3e, 0xb0, 0x5e, 0xfb, 0xbc, 0x1c, 0x22, 0xee, 0x3d,
  0xfe, 0x6c, 0x81, 0x3d, 0xe1, 0x9d, 0x7a, 0xbe, 0xa8, 0xe6, 0x25, 0x3e,
  0xa0, 0x26, 0x91, 0xbd, 0x31, 0xd0, 0x3d, 0xbe, 0x65, 0x9d, 0x2f, 0x3d,
  0x98, 0x3c, 0x8f, 0xbd, 0x8c, 0xcd, 0xa7, 0x3d, 0xba, 0xe7, 0x1a, 0x3e,
  0xe2, 0xb7, 0x1f, 0xbd, 0x9e, 0x90, 0x4c, 0xbe, 0xe8, 0xca, 0xe8, 0x3d,
  0x6d, 0xca, 0x46, 0x3e, 0x38, 0x6f, 0x64, 0x3e, 0x7b, 0x5c, 0x39, 0x3e,
  0x27, 0xdd, 0xd7, 0x3d, 0xc0, 0x24, 0x09, 0x3e, 0xb9, 0xfc, 0xf8, 0x3d,
  0x66, 0x08, 0x3a, 0xbe, 0xb6, 0x00, 0x0b, 0xbe, 0xc2, 0xb2, 0x6c, 0x3e,
  0xf3, 0xdd, 0x2f, 0xbe, 0x54, 0xc8, 0x0e, 0x3e, 0x71, 0xd4, 0x8f, 0x3e,
  0x81, 0x1c, 0xb8, 0xbd, 0xc4, 0x95, 0x39, 0x3e, 0x46, 0x05, 0x5a, 0x3e,
  0xb1, 0xcb, 0x9a, 0x3d, 0xbc, 0xb9, 0xb8, 0xbd, 0x74, 0xcb, 0xa3, 0xbd,
  0x14, 0x9f, 0x0f, 0xbe, 0x2c, 0x65, 0x51, 0xbe, 0x85, 0x91, 0x75, 0xbe,
  0xc8, 0x40, 0x16, 0x3e, 0xe8, 0x14, 0xa1, 0x3d, 0x72, 0x01, 0xe1, 0xbb,
  0x98, 0x8a, 0xb5, 0xbd, 0xe6, 0x93, 0xa6, 0xbe, 0x0c, 0xd0, 0x6a, 0xbe,
  0xbe, 0x36, 0xce, 0xbd, 0xa5, 0xbe, 0x37, 0x3e, 0xe1, 0x47, 0x11, 0x3e,
  0xca, 0x74, 0x88, 0xbd, 0x5e, 0xd4, 0x43, 0x3e, 0x02, 0x9a, 0x36, 0x3e,
  0x04, 0x74, 0x20, 0xbe, 0xeb, 0x98, 0x68, 0x3d, 0x9d, 0x14, 0x15, 0x3e,
  0x0e, 0x39, 0xd5, 0xbd, 0x56, 0xa2, 0x1d, 0xbd, 0x0a, 0xe9, 0x05, 0xbf,
  0xc2, 0xf9, 0x92, 0xbe, 0xf7, 0x54, 0xec, 0xbd, 0x7a, 0xb3, 0x98, 0xbe,
  0x0f, 0x82, 0x87, 0x3e, 0x7b, 0x0a, 0x8b, 0x3e, 0xd1, 0x73, 0x92, 0x3e,
  0x36, 0xd9, 0x83, 0x3e, 0xe0, 0xd9, 0x11, 0xbd, 0x0c, 0xde, 0x22, 0x3e,
  0xa8, 0x57, 0x48, 0xbe, 0x9e, 0x0c, 0x14, 0x3e, 0xbf, 0xc4, 0x4e, 0x3e,
  0xc0, 0x3f, 0x79, 0xbe, 0xe8, 0x9c, 0x12, 0xbe, 0x3a, 0x28, 0x7a, 0x3e,
  0x6b, 0x9e, 0x09, 0xbe, 0xb7, 0x60, 0x6d, 0x3e, 0xdc, 0x2e, 0x49, 0xbe,
  0x28, 0x0d, 0xa3, 0x3c, 0xe4, 0xd3, 0x34, 0xbe, 0x60, 0x39, 0xb9, 0xbd,
  0xed, 0x0e, 0xb8, 0xbc, 0x16, 0x40, 0x08, 0xbe, 0xfe, 0xe9, 0x30, 0x3e,
  0x51, 0xdb, 0x27, 0xbe, 0x3e, 0xd3, 0xba, 0xbd, 0x5a, 0x0d, 0x65, 0xbe,
  0x4b, 0x33, 0x3e, 0xbe, 0x20, 0x3b, 0x57, 0xbd, 0x21, 0xeb, 0x88, 0x3e,
  0x14, 0x86, 0xc1, 0xbd, 0xd9, 0x67, 0x80, 0xbe, 0xd9, 0x90, 0xe5, 0xbd,
  0x96, 0x37, 0x95, 0xbe, 0x4a, 0x80, 0x02, 0x3e, 0x20, 0x6b, 0x26, 0x3d,
  0x37, 0x59, 0x41, 0x3e, 0xa7, 0x9e, 0x8a, 0x3e, 0xf2, 0x10, 0x56, 0xbb,
  0x3c, 0xc0, 0xa8, 0xbd, 0x04, 0x1e, 0xa6, 0x3d, 0x7a, 0x5d, 0x45, 0xbe,
  0x49, 0xd4, 0xdd, 0x3d, 0x99, 0x3a, 0x81, 0x3e, 0xab, 0x8f, 0x6d, 0xbe,
  0xb8, 0x4c, 0xe2, 0xbd, 0x1d, 0xa4, 0x54, 0xbe, 0x4a, 0xc4, 0x7c, 0x3e,
  0x0f, 0x3a, 0x8b, 0xbd, 0xc1, 0xe3, 0x7f, 0x3e, 0x7e, 0x46, 0x97, 0xbe,
  0x76, 0x6c, 0x6f, 0x3e, 0x18, 0xe2, 0x1f, 0x3e, 0x60, 0xae, 0xe3, 0x3c,
  0x70, 0x32, 0xa3, 0x3c, 0x86, 0x58, 0x7b, 0x3e, 0xd7, 0x37, 0x80, 0x3e,
  0x26, 0x15, 0x93, 0xbd, 0x4f, 0xf9, 0xb2, 0x3d, 0xc2, 0x97, 0xe0, 0xbd,
  0xe9, 0x34, 0xc1, 0x3e, 0x48, 0x18, 0x4d, 0x3d, 0x0c, 0x28, 0xf0, 0x3e,
  0x70, 0x7e, 0xe9, 0x3d, 0xc5, 0x4e, 0x99, 0x3e, 0xd7, 0x4d, 0x8d, 0x3e,
  0xa7, 0x2e, 0x5d, 0x3f, 0x6d, 0xb5, 0xd8, 0x3e, 0xc8, 0x98, 0x1d, 0x3e,
  0x4c, 0x5d, 0x5e, 0xbb, 0x34, 0xe7, 0x8a, 0xbd, 0x60, 0x05, 0x70, 0xbd,
  0x35, 0x3c, 0x20, 0xbe, 0x32, 0x37, 0x54, 0x3e, 0xf8, 0x41, 0x14, 0xbd,
  0x31, 0xad, 0x41, 0x3d, 0x9e, 0xaf, 0xd5, 0xbd, 0x58, 0x02, 0xfe, 0x3d,
  0x8c, 0x1a, 0xdd, 0x3d, 0x94, 0x38, 0x68, 0xbd, 0xd7, 0xbb, 0xd6, 0xbd,
  0x5d, 0xf5, 0xac, 0xbb, 0xb6, 0xe7, 0x43, 0xbe, 0xa9, 0x7f, 0x14, 0xbe,
  0xc9, 0x67, 0x91, 0xbd, 0x00, 0x31, 0x00, 0x3e, 0x69, 0x74, 0xbb, 0xbc,
  0x39, 0x8b, 0x89, 0x3e, 0xfc, 0x43, 0x82, 0xbe, 0x14, 0x84, 0xe7, 0x3d,
  0x2b, 0x83, 0xa8, 0xbd, 0x66, 0x84, 0x75, 0xbe, 0x05, 0xca, 0x52, 0x3d,
  0x5b, 0x68, 0xed, 0x3d, 0x4a, 0xd6, 0x4e, 0x3c, 0x0c, 0x67, 0x44, 0x3d,
  0x9f, 0xa8, 0x0e, 0xbd, 0xba, 0x66, 0xe0, 0x3e, 0xb0, 0xb8, 0x05, 0x3f,
  0xb2, 0x18, 0x52, 0x3e, 0xac, 0x3b, 0xc4, 0xbd, 0x56, 0xef, 0x84, 0xbd,
  0x7e, 0xdb, 0xde, 0x3d, 0x92, 0xf9, 0x62, 0xbe, 0x70, 0x3f, 0x64, 0xbd,
  0x4f, 0xad, 0xed, 0xbd, 0x9b, 0x85, 0xcb, 0x3c, 0xe4, 0x5e, 0x82, 0x3e,
  0x53, 0xd2, 0xca, 0xbc, 0xcd, 0x98, 0x79, 0xbe, 0xc4, 0x5a, 0x62, 0xbe,
  0x8e, 0x42, 0x4f, 0x3e, 0x78, 0x9e, 0x4a, 0xbe, 0x64, 0xbc, 0x0b, 0x3e,
  0xc0, 0x97, 0xda, 0xbe, 0xd1, 0xcc, 0x0f, 0xbe, 0x24, 0x92, 0xae, 0x3d,
  0x85, 0x27, 0x65, 0x3e, 0xd0, 0x5f, 0x9a, 0xbe, 0x6e, 0xb4, 0x7d, 0x3e,
  0x70, 0x72, 0x48, 0x3b, 0x80, 0x07, 0x0a, 0xbe, 0x61, 0x61, 0x4c, 0xbe,
  0xb5, 0x34, 0x16, 0xbe, 0xd8, 0xb9, 0x02, 0x3d, 0x68, 0xb6, 0xf1, 0x3d,
  0x62, 0x7d, 0xee, 0xbd, 0x7e, 0x77, 0x6a, 0xbd, 0xb6, 0x33, 0x88, 0x3c,
  0xbb, 0x41, 0xc0, 0xbd, 0xd1, 0x17, 0x96, 0xbd, 0xb0, 0x44, 0x19, 0x3d,
  0x8b, 0x67, 0x2e, 0x3d, 0x4e, 0x7c, 0x69, 0x3e, 0x76, 0xc8, 0x9d, 0xbe,
  0x00, 0x85, 0xe2, 0xba, 0x4a, 0x8c, 0x53, 0xbe, 0x9b, 0x82, 0x8e, 0x3e,
  0x98, 0x6b, 0x7d, 0x3d, 0xd5, 0xe0, 0x89, 0x3e, 0x3a, 0x5f, 0xad, 0xbd,
  0xba, 0x5a, 0xef, 0x3d, 0xe2, 0x74, 0x82, 0x3e, 0x06, 0x6b, 0x80, 0xbd,
  0x7c, 0xdf, 0x85, 0xbe, 0xff, 0x7d, 0x8e, 0xbe, 0xc9, 0x73, 0xc6, 0x3d,
  0x0a, 0x89, 0x63, 0x3e, 0x90, 0xd0, 0xab, 0xbc, 0x35, 0xa8, 0x8c, 0xbe,
  0xdc, 0xbf, 0x4d, 0x3e, 0x66, 0xeb, 0x6c, 0xbe, 0xee, 0x19, 0x6c, 0x3e,
  0xd8, 0xe7, 0xcd, 0x3d, 0x87, 0x83, 0x59, 0x3e, 0x76, 0x2a, 0xcd, 0x3d,
  0x61, 0x1c, 0xef, 0xbd, 0x58, 0xe7, 0x0b, 0xbd, 0x32, 0x5a, 0x7a, 0x3e,
  0x29, 0x15, 0x4d, 0xbe, 0x3e, 0xa2, 0xd3, 0xbc, 0xf8, 0xd6, 0x72, 0x3d,
  0xbd, 0xf4, 0xf4, 0xbd, 0x95, 0x12, 0x34, 0xbe, 0xe0, 0xc1, 0x41, 0x3c,
  0xfd, 0xb9, 0x45, 0x3e, 0x5c, 0x58, 0xbf, 0x3d, 0xc8, 0xd7, 0x02, 0xbd,
  0x06, 0x43, 0x0a, 0xbe, 0xe8, 0xff, 0x1d, 0x3e, 0x55, 0x7a, 0x0e, 0xbe,
  0x2d, 0x0f, 0x2a, 0xbd, 0xe8, 0xd9, 0x6e, 0xbe, 0x01, 0x6a, 0xc7, 0x3d,
  0x8c, 0xa7, 0xde, 0x3d, 0x98, 0xe1, 0x7b, 0xbc, 0xc3, 0x7f, 0x99, 0xbe,
  0xf4, 0xf8, 0xba, 0xbd, 0xfe, 0xd2, 0x88, 0x3e, 0x48, 0xce, 0x3e, 0x3d,
  0xdb, 0x3f, 0x5b, 0xbe, 0x42, 0xac, 0x8e, 0xbe, 0x99, 0x9d, 0x62, 0xbe,
  0x00, 0x91, 0x5e, 0x3c, 0x76, 0x86, 0x48, 0x3e, 0xde, 0x60, 0x8d, 0xbe,
  0x7d, 0x8e, 0x5b, 0xbe, 0x33, 0x33, 0x05, 0xbd, 0xe7, 0x41, 0xba, 0xbd,
  0x9c, 0x28, 0x55, 0x3e, 0x2c, 0xb2, 0x97, 0xbe, 0xa6, 0x94, 0x60, 0xbd,
  0x31, 0xbb, 0x43, 0x3e, 0x68, 0x69, 0x14, 0x3c, 0x58, 0x52, 0x36, 0x3e,
  0xdc, 0x39, 0xcb, 0xbd, 0x24, 0xd1, 0x70, 0xbe, 0x18, 0xb3, 0x1b, 0xbd,
  0x73, 0x0e, 0x32, 0x3e, 0x50, 0x3f, 0x3d, 0x3d, 0x30, 0x25, 0xc3, 0x3c,
  0xb1, 0xbf, 0x6f, 0xbe, 0xb2, 0x41, 0x6a, 0xbe, 0xe1, 0x77, 0x88, 0xbd,
  0x23, 0xa2, 0x81, 0xbd, 0x55, 0xb1, 0x12, 0xbe, 0x8a, 0xa1, 0xe9, 0xbd,
  0x92, 0x95, 0x92, 0xbd, 0xec, 0xb3, 0xb5, 0xbc, 0x20, 0xb7, 0x8c, 0x3c,
  0x95, 0x8b, 0xe9, 0xbd, 0x1b, 0x53, 0x16, 0xba, 0x56, 0x1f, 0x43, 0x3e,
  0x7d, 0x6f, 0xac, 0xbe, 0x21, 0xc7, 0x8a, 0x3e, 0x80, 0x4f, 0xf7, 0xbc,
  0x47, 0xc6, 0xe7, 0xbc, 0x08, 0xe4, 0x6b, 0xbd, 0x57, 0xd6, 0x80, 0xbe,
  0x2a, 0x0c, 0x00, 0xbd, 0x8a, 0x72, 0x85, 0xbe, 0x2b, 0x01, 0x8a, 0xbd,
  0xe0, 0x9e, 0x94, 0xbc, 0x3c, 0x0b, 0x33, 0x3e, 0xc0, 0x2a, 0xe0, 0xbd,
  0x7e, 0xc0, 0x69, 0xbe, 0x47, 0x86, 0x2f, 0x3e, 0x80, 0x00, 0xd4, 0x3d,
  0x85, 0xbc, 0xa6, 0x3d, 0xaa, 0x46, 0x9b, 0xbd, 0xed, 0x8c, 0x4f, 0xbe,
  0x33, 0xd3, 0x87, 0x3e, 0xa4, 0x82, 0xaf, 0x3d, 0x70, 0x6d, 0xd1, 0xbd,
  0x64, 0x57, 0x36, 0xbe, 0xb6, 0x76, 0xf5, 0xbd, 0x4f, 0x3d, 0x98, 0x3e,
  0x96, 0xe4, 0x9c, 0xbd, 0x22, 0x52, 0x0c, 0xbe, 0xa7, 0x06, 0x8d, 0x3b,
  0x96, 0x46, 0x3d, 0x3e, 0xf7, 0x9c, 0x0e, 0x3e, 0x18, 0x6a, 0x48, 0x3e,
  0x3a, 0xa0, 0x79, 0x3e, 0x12, 0x68, 0x47, 0x3e, 0xc0, 0xe2, 0xeb, 0x3b,
  0x43, 0xa2, 0x89, 0x3d, 0x73, 0x7e, 0x8a, 0x3e, 0x28, 0x46, 0x36, 0xbd,
  0x8a, 0x90, 0x2a, 0x3e, 0x8d, 0x1a, 0x7b, 0xbe, 0xef, 0x49, 0x03, 0xbe,
  0x6c, 0x9a, 0x0f, 0x3e, 0x29, 0xee, 0xe4, 0xbd, 0x57, 0x4f, 0x77, 0x3d,
  0x02, 0x0a, 0xaf, 0xbd, 0x1d, 0x32, 0xf5, 0x3d, 0x08, 0xfd, 0x86, 0xbe,
  0xd2, 0xde, 0x56, 0xbe, 0x21, 0x96, 0x50, 0x3d, 0xb0, 0x4d, 0x05, 0xbd,
  0xb7, 0x3c, 0xf4, 0x3d, 0x66, 0x3a, 0x5a, 0x3e, 0x80, 0x4f, 0xd7, 0x3c,
  0x09, 0x45, 0x8f, 0xbe, 0xe2, 0xab, 0x38, 0x3e, 0xaf, 0xb2, 0x70, 0xbd,
  0x6e, 0xc1, 0x8f, 0xbe, 0x55, 0x57, 0x9c, 0xbe, 0x10, 0x07, 0x39, 0x3e,
  0x09, 0xb7, 0x9c, 0x3e, 0x96, 0x91, 0x05, 0xbd, 0xfc, 0xa7, 0x20, 0x3b,
  0x85, 0x6f, 0xf0, 0x3d, 0xde, 0x6a, 0x3c, 0xbe, 0x6f, 0x0f, 0x2a, 0xbe,
  0xcf, 0xdb, 0x8a, 0xbe, 0xbf, 0xfb, 0x6a, 0xbe, 0x80, 0x1b, 0xa4, 0xbd,
  0xec, 0xfc, 0xe0, 0x3d, 0x60, 0x7e, 0xa5, 0x3d, 0xd0, 0x09, 0x3d, 0x3d,
  0x4f, 0xf7, 0x7c, 0xbe, 0x60, 0x38, 0x14, 0x3c, 0x6e, 0x85, 0x8e, 0xbe,
  0x53, 0xe8, 0x61, 0x3d, 0x91, 0xd2, 0x3b, 0xbe, 0xe5, 0x49, 0x8f, 0xbe,
  0xd9, 0x84, 0x27, 0xbe, 0x9c, 0x7c, 0x02, 0x3c, 0x04, 0x26, 0x55, 0xbd,
  0x6c, 0x9f, 0x2c, 0x3e, 0x7c, 0xf3, 0xea, 0x3d, 0x9d, 0x19, 0x6f, 0xbe,
  0x3d, 0x29, 0xc2, 0xbd, 0x93, 0x43, 0x83, 0x3e, 0xb4, 0xe2, 0x77, 0xbd,
  0xd0, 0x80, 0xa2, 0x3d, 0x31, 0xca, 0x80, 0x3d, 0x95, 0xa3, 0x7e, 0x3d,
  0xf0, 0x2a, 0x8f, 0x3d, 0x41, 0x7d, 0x48, 0xbe, 0xe2, 0xd9, 0x89, 0x3e,
  0x38, 0xe9, 0x2b, 0xbd, 0x6f, 0xe5, 0x27, 0xbe, 0xda, 0xbe, 0x95, 0xbe,
  0xef, 0xfb, 0xef, 0x3d, 0xed, 0x25, 0x22, 0xbd, 0x52, 0x3a, 0x04, 0x3e,
  0xae, 0x8d, 0x27, 0x3e, 0xfe, 0x32, 0x5e, 0xbe, 0x2e, 0x33, 0x68, 0x3e,
  0xaa, 0x90, 0x30, 0xbe, 0x58, 0xc9, 0xbf, 0x3d, 0x56, 0xb7, 0x48, 0xbe,
  0x57, 0xbc, 0x1c, 0xbe, 0x80, 0xb7, 0x12, 0x3e, 0x22, 0xf2, 0x86, 0x3d,
  0x35, 0xe6, 0x86, 0x3e, 0xc0, 0xd7, 0x68, 0x3c, 0x31, 0x03, 0xa2, 0x3d,
  0x2a, 0x97, 0xa9, 0xbe, 0x50, 0x0e, 0x4f, 0xbe, 0x15, 0x09, 0x92, 0x3e,
  0x2f, 0x6d, 0x67, 0xbe, 0xa0, 0x98, 0x00, 0xbe, 0xd9, 0xff, 0x8b, 0xbe,
  0x2a, 0x6e, 0x88, 0xbe, 0x98, 0x4d, 0x8a, 0xbe, 0x94, 0xc2, 0x38, 0x3e,
  0xe8, 0x1b, 0x8b, 0x3d, 0xce, 0xe1, 0x99, 0xbe, 0x36, 0x4c, 0x00, 0x3e,
  0xcf, 0x1b, 0x4b, 0x3e, 0xf1, 0x3d, 0x15, 0xbd, 0xb9, 0x52, 0x68, 0x3e,
  0xe0, 0xad, 0x69, 0x3e, 0xd3, 0xc2, 0x11, 0x3e, 0x2a, 0xe0, 0x37, 0x3e,
  0x44, 0xae, 0x20, 0x3e, 0x18, 0x09, 0x3b, 0xbd, 0x5f, 0x90, 0x88, 0xbe,
  0x00, 0xb0, 0xe1, 0xbc, 0xf8, 0x83, 0x73, 0x3d, 0x84, 0x7a, 0xd0, 0x3d,
  0xff, 0xcf, 0x63, 0x3e, 0xd3, 0xac, 0x3e, 0xbc, 0xf1, 0x2f, 0x13, 0x3e,
  0x4f, 0x63, 0x66, 0xbc, 0x64, 0x8e, 0x4a, 0x3d, 0xf5, 0x28, 0x86, 0x3c,
  0x75, 0xb9, 0x83, 0x3e, 0x26, 0xb4, 0x81, 0x3d, 0xc0, 0x97, 0x81, 0x3c,
  0x13, 0x50, 0x20, 0x3e, 0x4e, 0x41, 0x8a, 0xbe, 0x44, 0xa9, 0x65, 0xbe,
  0x4b, 0xcf, 0x16, 0x3e, 0x00, 0x52, 0xb5, 0x3a, 0x6a, 0x73, 0x42, 0x3e,
  0xbd, 0x33, 0x02, 0x3d, 0x50, 0x23, 0x1c, 0xbe, 0xaf, 0xfe, 0xab, 0xbe,
  0x08, 0x85, 0x89, 0xbe, 0x9a, 0xd8, 0x78, 0x3e, 0x21, 0x6e, 0xd2, 0xbd,
  0x32, 0x76, 0x35, 0x3e, 0x7e, 0x90, 0xd4, 0x3d, 0xab, 0xde, 0x8a, 0xbe,
  0x6e, 0x52, 0x4a, 0xbe, 0x06, 0x73, 0x2e, 0xbd, 0x8e, 0x00, 0xab, 0xbd,
  0x44, 0xb6, 0x4a, 0x3e, 0xdc, 0xe0, 0x82, 0x3e, 0x21, 0x07, 0xd2, 0x3d,
  0xb9, 0xb3, 0x95, 0x3e, 0x76, 0x41, 0x4d, 0xbe, 0x9a, 0x91, 0x8b, 0xbd,
  0xc8, 0x43, 0x80, 0xbe, 0x03, 0x69, 0xaa, 0xbd, 0x23, 0x0a, 0x59, 0x3e,
  0x6b, 0x84, 0xa0, 0xbe, 0x0a, 0xc1, 0x86, 0xbe, 0x42, 0x3f, 0x90, 0x3d,
  0xef, 0x62, 0x76, 0x3e, 0x1d, 0xca, 0x41, 0xbe, 0x6d, 0x33, 0x3b, 0xbe,
  0xac, 0x70, 0x8e, 0xbd, 0x08, 0xa9, 0xb7, 0x3d, 0x1f, 0xda, 0x61, 0xbe,
  0x88, 0x2b, 0x29, 0xbe, 0xfc, 0x24, 0x8b, 0x3d, 0x60, 0x05, 0x53, 0xbe,
  0xb2, 0xe5, 0x2f, 0xbe, 0x04, 0xdc, 0x2d, 0x3d, 0xc1, 0x11, 0x88, 0xbd,
  0xb7, 0xa6, 0x6c, 0x3e, 0xe7, 0x5f, 0xc5, 0xbd, 0xf6, 0x66, 0xc4, 0x3e,
  0xb3, 0x7c, 0x89, 0x3e, 0x83, 0x2c, 0x2a, 0xbe, 0x10, 0x78, 0x91, 0xbc,
  0x16, 0x4b, 0xea, 0x3e, 0x7f, 0xa0, 0xab, 0x3e, 0xd5, 0xa3, 0x03, 0xbe,
  0x47, 0xfb, 0x8b, 0xbd, 0x00, 0xd0, 0x00, 0x3a, 0x45, 0x99, 0x88, 0xbe,
  0xbc, 0x4e, 0x1a, 0xbe, 0xc3, 0x9a, 0x1a, 0xbe, 0x0a, 0x23, 0xa7, 0x3d,
  0x26, 0x01, 0x64, 0xbd, 0xf8, 0xf2, 0x58, 0x3d, 0x99, 0x3d, 0x1a, 0x3e,
  0x34, 0x73, 0xb9, 0x3d, 0x8a, 0xf8, 0x8e, 0x3e, 0x5b, 0xe2, 0x42, 0xbe,
  0x86, 0xa9, 0x4c, 0x3c, 0x57, 0x1d, 0x64, 0x3e, 0x2a, 0x88, 0x15, 0x3e,
  0x62, 0xb0, 0x71, 0xbd, 0xc3, 0x6b, 0x08, 0xbe, 0x8b, 0xe8, 0xda, 0xbd,
  0x14, 0x34, 0xe5, 0xbd, 0x5f, 0xc3, 0x83, 0xbe, 0xf0, 0xbd, 0x83, 0xbc,
  0x06, 0x5d, 0x84, 0xbe, 0x44, 0xb0, 0x4c, 0x3e, 0x5b, 0xdc, 0x8d, 0x3e,
  0x85, 0x99, 0x7b, 0xbd, 0x23, 0xd0, 0xe1, 0x3d, 0xac, 0xa0, 0x82, 0x3e,
  0x6e, 0x1a, 0xa4, 0xbd, 0xca, 0x70, 0x5f, 0x3e, 0x1c, 0x05, 0xc2, 0xbb,
  0xc0, 0xc5, 0x7b, 0xbe, 0x10, 0x8f, 0xb4, 0xbd, 0x2e, 0x9c, 0x28, 0x3e,
  0x58, 0x48, 0x95, 0x3d, 0x02, 0x34, 0x49, 0x3e, 0xf7, 0x47, 0x47, 0xbe,
  0x5d, 0x8c, 0x4b, 0x3e, 0x54, 0xa4, 0x4f, 0x3b, 0x15, 0xe3, 0x18, 0xbe,
  0xbb, 0x2a, 0x44, 0xbe, 0x6b, 0x60, 0x46, 0xbd, 0x33, 0x4a, 0x09, 0x3e,
  0x80, 0x65, 0xb2, 0x3c, 0x7f, 0x33, 0xf5, 0x3c, 0x6a, 0xc3, 0x90, 0xbe,
  0x91, 0x65, 0xd6, 0x3d, 0xe3, 0xdb, 0x86, 0x3e, 0x6c, 0x18, 0xf7, 0x3d,
  0xf6, 0x88, 0xdc, 0x3d, 0x08, 0x88, 0xd1, 0x3d, 0x04, 0xe4, 0x44, 0xbe,
  0xf2, 0xb6, 0x31, 0x3e, 0xe8, 0xaf, 0x8f, 0x3d, 0xf1, 0x9e, 0x88, 0xbe,
  0xf9, 0x12, 0x96, 0xbe, 0x18, 0x91, 0x2e, 0xbd, 0xb3, 0x14, 0x8b, 0x3e,
  0x82, 0xf2, 0x75, 0xbe, 0x19, 0x32, 0x43, 0xbe, 0x55, 0xe4, 0x86, 0xbe,
  0x64, 0x8f, 0xfc, 0xbd, 0x32, 0xf4, 0x88, 0x3e, 0xf2, 0x01, 0x15, 0x3e,
  0x72, 0x9c, 0x99, 0xbd, 0x0b, 0xb7, 0x7e, 0x3e, 0x5f, 0xf7, 0x89, 0xbe,
  0xd2, 0x3f, 0x90, 0xbe, 0x40, 0x38, 0xeb, 0xbc, 0x64, 0xd3, 0xeb, 0xbd,
  0xf8, 0x14, 0x57, 0x3e, 0x3c, 0xc7, 0x0a, 0xbe, 0x34, 0x42, 0x3d, 0x3e,
  0x5f, 0xad, 0x78, 0xbc, 0xb0, 0x24, 0x06, 0x3e, 0xdf, 0xb6, 0xfa, 0x3d,
  0x56, 0xe3, 0x4b, 0xbe, 0x27, 0x2e, 0xe5, 0x3d, 0x2c, 0xe8, 0x98, 0x3e,
  0xa0, 0x4e, 0x60, 0x3d, 0xc8, 0xfd, 0x24, 0x3e, 0xb6, 0x91, 0x6d, 0xbe,
  0x83, 0x3d, 0x88, 0xbe, 0xea, 0x9f, 0x50, 0x3e, 0xbf, 0x7c, 0x93, 0x3e,
  0x5c, 0x69, 0x9c, 0xbe, 0x79, 0xce, 0x1a, 0x3e, 0x98, 0xa4, 0x34, 0x3e,
  0xfe, 0x5a, 0x5b, 0x3e, 0xfa, 0x41, 0x3d, 0x3e, 0xc7, 0x9c, 0x3f, 0xbe,
  0x80, 0xdb, 0x03, 0xbe, 0x98, 0xf8, 0x5e, 0xbe, 0x2b, 0x89, 0x1f, 0xbe,
  0x8e, 0x98, 0x7b, 0xbe, 0xd3, 0xe3, 0xbd, 0xbd, 0xac, 0x76, 0x39, 0xbe,
  0x4d, 0x35, 0xcc, 0x3d, 0x84, 0x58, 0x39, 0x3e, 0xa6, 0x76, 0x99, 0xbe,
  0xe6, 0xdd, 0x42, 0xbe, 0x98, 0xbf, 0x0f, 0xbd, 0xff, 0x5f, 0xfa, 0x3d,
  0x96, 0xb7, 0x68, 0xbe, 0x5c, 0x95, 0x04, 0x3e, 0x97, 0xe1, 0x73, 0x3d,
  0x72, 0x90, 0xfa, 0xbd, 0x4c, 0xff, 0x8b, 0xbe, 0xfc, 0x6a, 0x6d, 0x3d,
  0x86, 0x0a, 0x97, 0xbd, 0x40, 0x72, 0x1a, 0x3e, 0xb8, 0x9e, 0x2d, 0xbe,
  0xa1, 0x2c, 0x86, 0xbe, 0x9d, 0xf6, 0x99, 0xbd, 0xdc, 0x19, 0xad, 0xbe,
  0x72, 0xe7, 0x45, 0x3e, 0xc7, 0xd6, 0x8e, 0xbe, 0xf0, 0x22, 0x99, 0x3d,
  0xd5, 0x85, 0x5b, 0xbe, 0x91, 0x9a, 0x2d, 0xbe, 0x84, 0x64, 0x73, 0xbd,
  0x51, 0x34, 0xfe, 0xbd, 0xbf, 0x90, 0x08, 0xbe, 0xea, 0x9d, 0x8e, 0xbe,
  0xa0, 0xfa, 0xaf, 0x3c, 0xef, 0x39, 0x98, 0xbd, 0x3c, 0x84, 0x61, 0xbc,
  0x51, 0xc4, 0x99, 0xbe, 0x3a, 0xd3, 0x65, 0x3e, 0xa8, 0x45, 0xfa, 0xbd,
  0x11, 0xb2, 0x7d, 0xbc, 0x06, 0x8d, 0x75, 0x3e, 0x65, 0x84, 0x89, 0xbe,
  0x69, 0x77, 0x21, 0x3e, 0x63, 0x3b, 0x26, 0xbe, 0x12, 0xc4, 0x53, 0xbe,
  0x35, 0x28, 0x12, 0xbe, 0x18, 0x3e, 0xae, 0xbd, 0x6c, 0xd9, 0x9b, 0xbd,
  0xe0, 0xac, 0xa4, 0x3d, 0xea, 0x12, 0x62, 0x3e, 0x7c, 0xeb, 0xaf, 0x3d,
  0xb8, 0x28, 0x46, 0x3d, 0x98, 0x20, 0x98, 0x3e, 0x66, 0xbc, 0x68, 0xbe,
  0x06, 0x28, 0x3e, 0xbe, 0xae, 0x6d, 0x3d, 0xbe, 0xea, 0x01, 0x92, 0xbd,
  0x3c, 0xd2, 0x94, 0xbe, 0xb4, 0xe5, 0xe6, 0x3d, 0x7d, 0x91, 0x72, 0xbe,
  0x5c, 0xb6, 0x38, 0xbe, 0x50, 0xf9, 0x18, 0x3e, 0xcc, 0x77, 0x56, 0x3e,
  0xe6, 0xb2, 0x0b, 0x3e, 0x70, 0xf0, 0x2c, 0x3e, 0xe2, 0x5e, 0x8b, 0xbe,
  0xc5, 0xdd, 0x1e, 0x3e, 0x8e, 0x2b, 0xfc, 0xbd, 0xa8, 0xa9, 0x2c, 0x3e,
  0x10, 0xc7, 0x0d, 0xbe, 0x44, 0xa9, 0x97, 0xbe, 0xec, 0x3b, 0x5e, 0x3d,
  0xe9, 0xa9, 0x8e, 0x3e, 0x81, 0xd2, 0x98, 0xbe, 0x12, 0x42, 0x43, 0xbe,
  0xf8, 0x91, 0x71, 0xbe, 0xfe, 0x3a, 0x83, 0xbe, 0x04, 0x9c, 0x90, 0x3d,
  0x04, 0x3d, 0x5e, 0xbc, 0x9e, 0x29, 0x99, 0xbe, 0xaa, 0xac, 0x18, 0x3e,
  0x9e, 0x36, 0x35, 0x3e, 0x9e, 0xa8, 0xd2, 0x3d, 0xcc, 0xa0, 0x91, 0x3d,
  0x7e, 0xc9, 0x1e, 0x3e, 0xea, 0xbc, 0x12, 0x3e, 0x18, 0x10, 0xfc, 0xbd,
  0x1a, 0x55, 0xcd, 0x3d, 0x03, 0x73, 0x98, 0xbe, 0x60, 0x3d, 0x98, 0x3c,
  0xea, 0xfb, 0x11, 0x3e, 0x37, 0xa3, 0x6e, 0xbe, 0xbd, 0x80, 0xd6, 0xbd,
  0x10, 0xea, 0x6c, 0xbe, 0x39, 0x82, 0x5f, 0x3e, 0xbd, 0xad, 0x31, 0xbe,
  0xbb, 0xea, 0x85, 0x3e, 0x53, 0x14, 0x81, 0x3e, 0x42, 0x13, 0x6f, 0xbe,
  0x38, 0xa6, 0xdb, 0xbb, 0x77, 0xa3, 0xf1, 0x3d, 0xd0, 0xc3, 0x79, 0x3d,
  0x4a, 0xfe, 0x95, 0xbe, 0xf2, 0x6c, 0xe1, 0xbd, 0x64, 0xe4, 0xba, 0x3d,
  0x1e, 0xb8, 0x65, 0x3d, 0x08, 0xf5, 0x15, 0x3d, 0x2e, 0xf0, 0xef, 0x3c,
  0xa9, 0xdb, 0xa1, 0xbe, 0xa0, 0x28, 0x40, 0xbe, 0x18, 0x58, 0xf1, 0xbd,
  0x80, 0x3e, 0xa9, 0xbd, 0x38, 0x4b, 0x43, 0x3e, 0xff, 0x04, 0x27, 0xbe,
  0x75, 0x39, 0xc9, 0x3d, 0x33, 0x10, 0x30, 0x3c, 0x0e, 0x03, 0x4e, 0x3e,
  0xaf, 0x8c, 0x45, 0xbe, 0x48, 0x89, 0xa1, 0x3d, 0xfc, 0x9f, 0x90, 0xbe,
  0x0a, 0x48, 0x56, 0x3e, 0x84, 0x4f, 0xce, 0xbd, 0xd0, 0x3e, 0x00, 0x3d,
  0xac, 0xb8, 0x72, 0xbe, 0x20, 0xfb, 0xbb, 0xbc, 0x6e, 0x63, 0xea, 0xbd,
  0x95, 0x4d, 0xe4, 0xbb, 0x36, 0x5c, 0x50, 0xbe, 0x42, 0x8d, 0x58, 0xbe,
  0x30, 0xf3, 0xfb, 0x3d, 0xe7, 0x59, 0x0b, 0xbe, 0x13, 0x26, 0x1f, 0xbe,
  0x4a, 0xc9, 0x11, 0x3e, 0x4e, 0xde, 0x83, 0xbe, 0xac, 0x60, 0x3a, 0x3e,
  0x63, 0xed, 0xe0, 0x3d, 0x00, 0x8a, 0x9a, 0xba, 0xf3, 0xb0, 0x98, 0x3e,
  0x77, 0x36, 0x80, 0xbe, 0xdc, 0xb5, 0x6a, 0xbe, 0xdf, 0xb7, 0x37, 0xbc,
  0x10, 0x50, 0x94, 0x3d, 0x44, 0x1f, 0x44, 0xbe, 0x6e, 0x90, 0xe9, 0x3e,
  0xd0, 0x04, 0x15, 0x3d, 0xf9, 0x59, 0x7f, 0xbe, 0x4a, 0xdd, 0xa1, 0xbd,
  0x93, 0x66, 0x30, 0x3e, 0x04, 0x4e, 0x91, 0x3e, 0x90, 0x36, 0x37, 0xbe,
  0x58, 0x28, 0x7c, 0xbe, 0x16, 0x06, 0xfa, 0xbd, 0x66, 0x34, 0x65, 0xbe,
  0xd5, 0x4c, 0x85, 0x3c, 0xa4, 0x49, 0x86, 0x3d, 0x43, 0xcf, 0xb4, 0xbd,
  0xe5, 0x93, 0xeb, 0x3d, 0xa0, 0x59, 0x18, 0x3d, 0x7c, 0x11, 0x7b, 0x3e,
  0x00, 0x9e, 0x55, 0xbd, 0x2b, 0xe1, 0x08, 0x3e, 0x0a, 0x49, 0x5e, 0xbe,
  0x4d, 0xa8, 0x82, 0xbd, 0x01, 0x75, 0xa2, 0xbe, 0xec, 0x79, 0xb7, 0x3d,
  0xb4, 0x56, 0x27, 0xbb, 0xcc, 0x79, 0xd0, 0xbd, 0xd7, 0x05, 0x23, 0x3d,
  0xdc, 0x53, 0xfa, 0x3d, 0x4c, 0x52, 0xb6, 0x3d, 0x22, 0x1e, 0x0f, 0x3e,
  0xfa, 0xf3, 0x1a, 0x3d, 0xbc, 0xbe, 0x47, 0x3e, 0x17, 0x15, 0xed, 0x3c,
  0xf6, 0xe1, 0x87, 0x3d, 0x3e, 0x7e, 0xc6, 0xbd, 0x06, 0xca, 0xc2, 0x3e,
  0x53, 0x3c, 0xa6, 0xbc, 0x0b, 0xff, 0x64, 0x3e, 0x30, 0x48, 0xaa, 0x3d,
  0xa0, 0x63, 0xf6, 0x3d, 0xa6, 0xee, 0x78, 0x3e, 0xa0, 0xe3, 0xd5, 0x3d,
  0xd2, 0xe5, 0xff, 0xff, 0x10, 0x00, 0x00, 0x00, 0x06, 0x00, 0x00, 0x00,
  0x14, 0x00, 0x00, 0x00, 0x30, 0x00, 0x00, 0x00, 0x02, 0x00, 0x00, 0x00,
  0x10, 0x00, 0x00, 0x00, 0x30, 0x00, 0x00, 0x00, 0x19, 0x00, 0x00, 0x00,
  0x73, 0x65, 0x71, 0x75, 0x65, 0x6e, 0x74, 0x69, 0x61, 0x6c, 0x2f, 0x64,
  0x65, 0x6e, 0x73, 0x65, 0x5f, 0x31, 0x2f, 0x4d, 0x61, 0x74, 0x4d, 0x75,
  0x6c, 0x00, 0x00, 0x00, 0x64, 0xe5, 0xff, 0xff, 0x32, 0xe6, 0xff, 0xff,
  0x04, 0x00, 0x00, 0x00, 0x00, 0x18, 0x00, 0x00, 0x9d, 0x5d, 0x11, 0x3c,
  0x50, 0x4a, 0x22, 0x3d, 0xdd, 0x42, 0x14, 0x3e, 0x16, 0x45, 0x65, 0xbc,
  0x7c, 0x39, 0xa2, 0xbe, 0x30, 0xa4, 0x89, 0xb9, 0x52, 0xef, 0x39, 0x3e,
  0xfb, 0x94, 0xd4, 0x3d, 0xd8, 0xde, 0x9b, 0xbe, 0xaa, 0x1b, 0x41, 0x3e,
  0x42, 0x79, 0x55, 0x3d, 0xb2, 0xd4, 0xb7, 0x3d, 0xa9, 0x61, 0xe0, 0x3d,
  0xf6, 0x12, 0x51, 0xbd, 0xe7, 0xd5, 0xe1, 0x3d, 0x68, 0x34, 0x1b, 0xbe,
  0x8c, 0xb7, 0xc3, 0x3c, 0xa0, 0x6f, 0x5d, 0xbe, 0xe4, 0xb3, 0x96, 0xbe,
  0xbb, 0xeb, 0x71, 0x3d, 0xd2, 0x9d, 0x2e, 0xbd, 0xea, 0x28, 0x2d, 0xbe,
  0x8d, 0xf4, 0x59, 0x3d, 0x70, 0x3e, 0xaf, 0xbc, 0xaf, 0xe7, 0x8a, 0xbe,
  0xf0, 0x24, 0x96, 0xbe, 0x85, 0xa6, 0x2f, 0x3e, 0xcd, 0xf1, 0xa9, 0xbe,
  0x03, 0x32, 0x05, 0xbe, 0x44, 0x5d, 0x92, 0xbd, 0x5f, 0x6a, 0x01, 0x3b,
  0x22, 0xa5, 0xa4, 0xbe, 0x80, 0x59, 0x04, 0xbd, 0x66, 0x4e, 0xc9, 0xbd,
  0xee, 0x0d, 0x63, 0xbe, 0xd8, 0x99, 0x05, 0x3d, 0xec, 0xf3, 0x4c, 0xbe,
  0xcc, 0x85, 0xb2, 0x3d, 0x38, 0xb8, 0x91, 0xbd, 0x24, 0x2d, 0x36, 0xbd,
  0xb0, 0x1d, 0xa7, 0xbd, 0x18, 0xa3, 0xa6, 0x3d, 0xe0, 0x1f, 0x93, 0x3c,
  0xfc, 0xc5, 0x41, 0xbe, 0xe2, 0xbd, 0x4c, 0xbe, 0xd0, 0x3d, 0xbd, 0x3c,
  0x08, 0x68, 0x13, 0x3d, 0x60, 0xac, 0x4f, 0x3c, 0xc2, 0xfe, 0x6d, 0xbe,
  0x30, 0xcc, 0xf1, 0x3d, 0xd1, 0x3c, 0x6f, 0xbe, 0x3c, 0x68, 0xe3, 0xbd,
  0x70, 0xc3, 0xac, 0x3d, 0xf4, 0x5d, 0xb2, 0xbd, 0x0c, 0x9c, 0xe1, 0x3d,
  0x44, 0x45, 0x4a, 0xbe, 0xae, 0x91, 0x60, 0x3e, 0xba, 0xfe, 0x54, 0xbe,
  0x6c, 0xce, 0x51, 0xbd, 0x2a, 0x60, 0x89, 0xbe, 0x08, 0x2f, 0x1e, 0xbe,
  0x5c, 0x71, 0x43, 0xbe, 0x15, 0xa7, 0x86, 0xbe, 0xb8, 0x0f, 0xcd, 0x3d,
  0xe8, 0x06, 0xa5, 0xbd, 0x20, 0xed, 0x70, 0x3d, 0x5b, 0x19, 0x68, 0xbe,
  0x08, 0xef, 0x02, 0xbe, 0x76, 0xe3, 0x6f, 0xbe, 0x0e, 0x57, 0x6b, 0xbe,
  0x8a, 0x92, 0x08, 0x3e, 0x82, 0x70, 0xed, 0xbd, 0x8e, 0xe9, 0xb2, 0xbd,
  0x24, 0x60, 0x81, 0xbe, 0x0e, 0x57, 0x21, 0x3e, 0x64, 0x86, 0xa5, 0x3d,
  0xc4, 0x2f, 0xb7, 0xbd, 0xb4, 0x99, 0xef, 0x3d, 0xce, 0x03, 0xbc, 0xbd,
  0x76, 0x85, 0xe8, 0xbd, 0x8a, 0x6f, 0x03, 0xbe, 0xd0, 0x5c, 0x8a, 0xbc,
  0xf5, 0x2a, 0x1e, 0xbe, 0xae, 0x34, 0x35, 0x3e, 0x64, 0x10, 0xe3, 0xbd,
  0x48, 0x0a, 0x03, 0x3d, 0xaf, 0xfb, 0x10, 0xbe, 0xb0, 0x1a, 0x19, 0x3d,
  0xc8, 0x01, 0xa0, 0x3d, 0x1e, 0x8d, 0xff, 0xbd, 0x98, 0xee, 0x90, 0xbd,
  0xc0, 0x80, 0x56, 0x3c, 0xc0, 0x31, 0xa0, 0x3c, 0x28, 0x64, 0xa9, 0x3d,
  0x96, 0x1b, 0xc2, 0xbd, 0x20, 0xb8, 0x27, 0x3d, 0x95, 0x52, 0xc9, 0xbd,
  0x0a, 0x9c, 0xce, 0xbd, 0xf1, 0xd6, 0x7a, 0xbc, 0x58, 0xe2, 0xec, 0x3d,
  0x77, 0x6e, 0xc1, 0xbd, 0xc8, 0x58, 0xa3, 0x3d, 0xb1, 0xdc, 0x87, 0xbc,
  0x9a, 0xbd, 0x1a, 0x3e, 0x4c, 0x51, 0x46, 0xbe, 0x80, 0x6c, 0x78, 0xbd,
  0x61, 0x5d, 0x3e, 0x3e, 0xb1, 0xf1, 0x98, 0x3d, 0x32, 0x9e, 0x47, 0xbe,
  0x84, 0xd4, 0x26, 0xbe, 0x37, 0x57, 0x11, 0x3e, 0x2f, 0xf0, 0x8b, 0xbe,
  0x6d, 0x8b, 0x17, 0xbd, 0x11, 0x19, 0x03, 0x3e, 0x83, 0x71, 0x80, 0xbd,
  0x2b, 0xa9, 0x6d, 0x3e, 0x7f, 0x61, 0x23, 0xbd, 0x63, 0x63, 0x26, 0xbe,
  0xbe, 0xc1, 0x54, 0xbe, 0xc2, 0x43, 0x2f, 0x3e, 0x7c, 0x58, 0xa6, 0xbd,
  0xbc, 0x14, 0x63, 0xbe, 0x90, 0xce, 0xe7, 0xbd, 0xe6, 0x22, 0x16, 0xbe,
  0x78, 0x44, 0x13, 0xbd, 0xb3, 0xd5, 0x74, 0xbe, 0xf9, 0xc6, 0x5d, 0x3e,
  0x85, 0x8e, 0x99, 0xbe, 0x07, 0x6d, 0x9d, 0xbe, 0x16, 0xcc, 0x48, 0x3e,
  0x4d, 0x90, 0x0b, 0xbe, 0xb1, 0x9c, 0x34, 0x3e, 0xcd, 0x50, 0x95, 0xbe,
  0x2c, 0xfe, 0x14, 0xbd, 0xa6, 0xba, 0x45, 0x3e, 0xc8, 0xb5, 0x75, 0x3c,
  0xbe, 0x89, 0x1f, 0x3e, 0xe7, 0x45, 0xc2, 0xbd, 0x3d, 0xe0, 0x44, 0xbe,
  0x1e, 0x50, 0xce, 0x3d, 0x95, 0x0b, 0x1c, 0xbe, 0x16, 0x72, 0x83, 0x3c,
  0xba, 0x99, 0xcd, 0x3d, 0xe8, 0x5d, 0x0f, 0x3e, 0xc6, 0xc7, 0xc3, 0xbd,
  0xed, 0xd4, 0x2c, 0xbd, 0xbb, 0xd9, 0x82, 0x3e, 0x40, 0xfb, 0x23, 0xbe,
  0x05, 0x11, 0xc9, 0xbd, 0xad, 0x44, 0x04, 0xbe, 0xff, 0x19, 0xaa, 0x3d,
  0x66, 0x3a, 0x52, 0xbd, 0x51, 0xd1, 0x1d, 0x3e, 0xa1, 0x81, 0x86, 0x3e,
  0x7e, 0x03, 0x4d, 0xbe, 0x27, 0x6f, 0xa1, 0x3d, 0x95, 0xe9, 0x81, 0x3d,
  0x2e, 0xdf, 0x2b, 0xbe, 0x15, 0x85, 0x82, 0xbd, 0xca, 0x19, 0xb0, 0xbc,
  0xbf, 0x0e, 0x8c, 0x3d, 0x83, 0x0b, 0x7a, 0x3d, 0x36, 0x20, 0x81, 0xbd,
  0xae, 0x5a, 0x2d, 0x3e, 0x19, 0x35, 0xbc, 0x3d, 0x61, 0x0e, 0x36, 0xbe,
  0xa4, 0x19, 0xae, 0xbc, 0x3f, 0x84, 0x1c, 0x3e, 0xcf, 0x69, 0x9c, 0xbe,
  0xfe, 0x9e, 0xf6, 0x3d, 0xb2, 0x87, 0x0c, 0x3e, 0xc7, 0x5a, 0x1b, 0xbe,
  0x17, 0x13, 0x02, 0x3d, 0xa7, 0x91, 0x6e, 0x3e, 0x3a, 0x90, 0x06, 0xbd,
  0xf1, 0x74, 0x9c, 0xbe, 0x83, 0xe5, 0x0f, 0xbe, 0x0c, 0x81, 0x04, 0x3d,
  0xd0, 0x61, 0xa9, 0x3e, 0x10, 0x08, 0x77, 0x3d, 0x10, 0xe7, 0x8b, 0x3e,
  0x7c, 0x11, 0xed, 0xbc, 0x41, 0xd1, 0x18, 0xbe, 0x5c, 0x82, 0x71, 0xbd,
  0x47, 0x65, 0xdd, 0xbd, 0xfc, 0xfd, 0x3f, 0x3e, 0xa9, 0x4d, 0xa9, 0xbd,
  0x7c, 0x02, 0x2c, 0x3e, 0x55, 0x11, 0x85, 0x3e, 0x96, 0x94, 0xe8, 0x3d,
  0xa4, 0xd7, 0x69, 0x3d, 0x48, 0x94, 0x90, 0x3e, 0xb3, 0xe6, 0x92, 0x3d,
  0x8d, 0xd0, 0x11, 0xbe, 0x91, 0x13, 0x1c, 0x3d, 0x54, 0x36, 0x14, 0x3e,
  0xf2, 0xd7, 0xde, 0x3c, 0xf9, 0x33, 0x80, 0xbd, 0x9a, 0x79, 0x99, 0xbd,
  0x56, 0x2f, 0x89, 0xbd, 0xd5, 0xea, 0x93, 0xbd, 0xa9, 0x08, 0x2c, 0x3e,
  0xb1, 0x32, 0x82, 0xbe, 0x39, 0x05, 0xf1, 0x3d, 0x14, 0xb0, 0xf9, 0xbd,
  0x47, 0x68, 0x84, 0xbc, 0xf3, 0xa6, 0x42, 0x3e, 0xbc, 0x91, 0xf1, 0xbd,
  0x10, 0x72, 0xe5, 0x3d, 0x37, 0x86, 0x93, 0xbe, 0xa8, 0xdc, 0x3a, 0x3d,
  0x9d, 0x15, 0x44, 0x3e, 0xa6, 0x09, 0xc2, 0xbc, 0x63, 0x20, 0x42, 0x3e,
  0xb8, 0xf9, 0x7a, 0x3e, 0xe3, 0x4e, 0x01, 0x3e, 0xf5, 0xfa, 0x57, 0xbd,
  0xc8, 0x16, 0xd8, 0x3d, 0xa0, 0x86, 0x56, 0xbd, 0x32, 0xd6, 0xa3, 0xbd,
  0x45, 0x98, 0xcc, 0xbd, 0xdc, 0x1f, 0x8b, 0xbe, 0x9c, 0x8a, 0x21, 0x3e,
  0xa8, 0x1d, 0x2b, 0x3e, 0xda, 0x88, 0x1b, 0x3e, 0x9c, 0xd7, 0xe1, 0x3d,
  0x17, 0xc1, 0xbf, 0x3d, 0xbe, 0x41, 0x9c, 0xbe, 0xb1, 0xdd, 0x69, 0xbd,
  0xa5, 0x72, 0xea, 0x3d, 0x75, 0x64, 0xe2, 0x3d, 0xb3, 0x6d, 0x0a, 0xbd,
  0x54, 0x8e, 0x33, 0x3d, 0xeb, 0x4a, 0x8c, 0xbe, 0xb4, 0xb1, 0x81, 0x3e,
  0x5c, 0x7a, 0x2d, 0x3e, 0xe6, 0x73, 0x3c, 0xbe, 0x0f, 0x48, 0x44, 0xbe,
  0xf0, 0xaa, 0x34, 0x3c, 0x98, 0xcd, 0xfb, 0xbd, 0x8a, 0xf9, 0x93, 0x3c,
  0xce, 0x39, 0x06, 0x3e, 0x1d, 0xc5, 0x0a, 0x3e, 0xf6, 0xdd, 0xa9, 0x3e,
  0xc9, 0x5e, 0x54, 0x3e, 0xe9, 0x75, 0x73, 0x3e, 0x38, 0xb8, 0xff, 0x3d,
  0x99, 0xf1, 0x56, 0x3e, 0x97, 0xd1, 0x7b, 0x3d, 0x6c, 0xf0, 0x7d, 0xbd,
  0xa1, 0xbf, 0xb4, 0x3d, 0x0b, 0x10, 0x51, 0xbe, 0xaf, 0x6d, 0x0f, 0xbe,
  0xb4, 0x2e, 0x18, 0xbe, 0x8c, 0x88, 0x99, 0xbd, 0xf3, 0x57, 0x69, 0xbe,
  0x62, 0xb8, 0x28, 0xbe, 0xe6, 0x2c, 0x06, 0x3d, 0xb4, 0x44, 0x02, 0xbe,
  0x24, 0x9f, 0x8d, 0x3e, 0x4b, 0x11, 0x25, 0x3e, 0x42, 0xa0, 0x80, 0x3e,
  0xcb, 0x71, 0x98, 0x3d, 0xf7, 0xea, 0xcf, 0x3d, 0xb4, 0x22, 0x2d, 0xbe,
  0xa8, 0x2f, 0x91, 0xbe, 0x60, 0xf8, 0x29, 0xbe, 0x3d, 0x70, 0x91, 0x3c,
  0x01, 0x04, 0xcd, 0x3d, 0x11, 0xd6, 0xc5, 0x3d, 0xea, 0x5f, 0x42, 0xbe,
  0x64, 0x35, 0x9a, 0xbe, 0x06, 0x02, 0xa2, 0xbe, 0xb0, 0xcd, 0x98, 0xbe,
  0x4c, 0x5e, 0xcd, 0xbe, 0x34, 0xe7, 0x0f, 0x3d, 0x6c, 0x0e, 0x38, 0xbe,
  0xf2, 0x40, 0x72, 0xbe, 0xa5, 0xa1, 0x9e, 0xbe, 0xc5, 0x77, 0x4f, 0xbc,
  0x8f, 0x4f, 0xcb, 0xbe, 0x21, 0xde, 0x92, 0xbe, 0x6a, 0x2f, 0x92, 0xbe,
  0x95, 0x59, 0x33, 0xbe, 0x1e, 0x56, 0xfe, 0xbc, 0x02, 0x2f, 0x97, 0xbd,
  0x2a, 0x10, 0xf4, 0xbd, 0xd6, 0xf8, 0x87, 0xbe, 0x00, 0x40, 0x1b, 0xbe,
  0x02, 0x28, 0x2b, 0xbe, 0x26, 0x89, 0x1c, 0xbe, 0x2a, 0x97, 0x3e, 0x3e,
  0xe2, 0x42, 0x87, 0x3e, 0xee, 0x70, 0x3d, 0xbe, 0x84, 0x86, 0xd0, 0xbd,
  0xca, 0x00, 0x1b, 0xbe, 0xc0, 0x51, 0x2b, 0xbc, 0xf9, 0xa4, 0x0e, 0xbe,
  0x1d, 0x75, 0x21, 0xbe, 0xd6, 0xfa, 0x07, 0x3e, 0x0b, 0xa9, 0x5e, 0xbe,
  0xf0, 0x7f, 0xb2, 0xbc, 0xa0, 0x56, 0x1b, 0x3e, 0xec, 0xe6, 0x4f, 0xbe,
  0x70, 0x56, 0x2c, 0xbe, 0xa0, 0x1a, 0x28, 0x3d, 0x90, 0x7f, 0x20, 0xbe,
  0x4c, 0xc4, 0x18, 0xbe, 0x8e, 0xce, 0x9c, 0xbd, 0x3b, 0xd5, 0x09, 0xbe,
  0x50, 0x53, 0x29, 0xbd, 0x18, 0x6f, 0x81, 0x3d, 0xa8, 0x6d, 0x5d, 0x3e,
  0x86, 0x18, 0x28, 0xbe, 0x3c, 0xf1, 0x97, 0xbd, 0xd0, 0xff, 0x16, 0x3e,
  0x90, 0xc7, 0x1d, 0x3e, 0xe6, 0xc3, 0x30, 0xbe, 0xa0, 0x9b, 0xda, 0xbd,
  0x72, 0x86, 0x56, 0x3e, 0xac, 0x07, 0x32, 0xbe, 0x59, 0x83, 0x7f, 0x3d,
  0xba, 0xcf, 0x39, 0xbc, 0x5e, 0x39, 0x3f, 0xbe, 0x13, 0x28, 0x95, 0x3d,
  0xf8, 0x65, 0xa6, 0xbc, 0xc0, 0xac, 0x94, 0x3d, 0x2b, 0x3e, 0xd2, 0xbd,
  0x58, 0x22, 0xf0, 0x3d, 0xa5, 0xd2, 0x30, 0x3e, 0x91, 0x69, 0x3c, 0xbc,
  0x58, 0x7b, 0x31, 0x3d, 0xda, 0xc0, 0x5e, 0x3d, 0x72, 0xaa, 0x21, 0xbe,
  0xea, 0xb4, 0x86, 0x3e, 0x62, 0x6e, 0x9f, 0x3d, 0x17, 0x0a, 0x1c, 0x3e,
  0x84, 0xce, 0x0d, 0x3d, 0xec, 0x18, 0xca, 0xbe, 0xa4, 0x8f, 0xac, 0xbe,
  0x50, 0xe8, 0x7c, 0xbe, 0x17, 0x4d, 0x84, 0x3c, 0x2e, 0x4a, 0xec, 0x3d,
  0x86, 0xd8, 0x9a, 0xbc, 0xf7, 0x61, 0x6d, 0xbe, 0xfa, 0xc9, 0x60, 0xbe,
  0x11, 0x9f, 0x92, 0xbe, 0x50, 0x42, 0xd9, 0xbd, 0x77, 0x95, 0x19, 0xbc,
  0xb5, 0xb9, 0xc9, 0xbd, 0x7f, 0x8f, 0xac, 0xbe, 0xea, 0x87, 0xa6, 0xbe,
  0xec, 0x66, 0xf9, 0x3d, 0xe0, 0xab, 0xb5, 0xbd, 0xf4, 0x87, 0x67, 0xbe,
  0x1c, 0x85, 0x46, 0xbe, 0x20, 0xb1, 0x0e, 0x3d, 0xa4, 0x88, 0x7e, 0xbd,
  0xf5, 0xd7, 0x81, 0xbe, 0xef, 0xb0, 0x8b, 0xbe, 0x58, 0x96, 0x26, 0x3e,
  0xf2, 0x88, 0xe5, 0xbd, 0x4c, 0xf3, 0x7f, 0xbd, 0xdc, 0x6d, 0x81, 0xbe,
  0x30, 0x62, 0xfc, 0xbc, 0xf5, 0xda, 0x77, 0xbe, 0x12, 0x12, 0x93, 0xbd,
  0x8c, 0xec, 0xda, 0x3d, 0xc0, 0xb0, 0xbc, 0xbb, 0xd2, 0x94, 0x4c, 0x3e,
  0xad, 0xa2, 0x84, 0xbe, 0x57, 0x8a, 0x3c, 0xbe, 0x92, 0x37, 0xdd, 0xbd,
  0x26, 0x7b, 0x67, 0x3e, 0x20, 0xf1, 0x17, 0x3d, 0x7c, 0xbd, 0x12, 0xbe,
  0x50, 0xfe, 0x89, 0xbc, 0xf8, 0xc9, 0xe3, 0x3d, 0x40, 0xf9, 0xa4, 0xbc,
  0x20, 0xde, 0x7e, 0xbc, 0xb6, 0xf2, 0x28, 0x3e, 0x50, 0xa8, 0x34, 0x3d,
  0x18, 0x22, 0x3f, 0xbe, 0xb4, 0x93, 0x03, 0xbd, 0xcf, 0x2e, 0x72, 0xbe,
  0x88, 0x53, 0xe2, 0xbd, 0x94, 0xd3, 0x88, 0x3e, 0xf0, 0xc9, 0x42, 0x3e,
  0x53, 0x57, 0xd4, 0x3d, 0x50, 0x3c, 0xc4, 0xbd, 0x71, 0x11, 0xd5, 0x3d,
  0x64, 0x6f, 0x6b, 0x3e, 0x38, 0xdf, 0x43, 0x3e, 0xf0, 0xfe, 0x37, 0xbe,
  0x95, 0xe6, 0x9b, 0xbd, 0x20, 0x18, 0x01, 0xbe, 0x0e, 0x22, 0xc2, 0xbe,
  0x7f, 0xe4, 0xbf, 0xbd, 0x9e, 0xf7, 0x72, 0xbe, 0x4d, 0x1d, 0xb7, 0xbe,
  0x35, 0xba, 0x97, 0xbd, 0x9a, 0x51, 0x70, 0xbe, 0x1e, 0xf4, 0x94, 0xbe,
  0xc7, 0x2f, 0x4d, 0xbe, 0x1a, 0xaa, 0x0a, 0xbe, 0xc1, 0x18, 0x7f, 0xbe,
  0xb6, 0x08, 0x50, 0xbe, 0xb2, 0xd4, 0x4b, 0xbe, 0x9b, 0x30, 0xc0, 0xbc,
  0xd2, 0xa7, 0x33, 0xbe, 0xc4, 0xf9, 0xe8, 0xbd, 0x20, 0xb1, 0x64, 0x3d,
  0xfc, 0xd3, 0xc7, 0xbe, 0x91, 0xed, 0x49, 0x3d, 0xdd, 0xe4, 0x2e, 0xbe,
  0x95, 0x22, 0xbe, 0xbd, 0x53, 0xb4, 0xb4, 0xbd, 0xf3, 0x46, 0xf9, 0xbd,
  0x21, 0x40, 0x88, 0x3e, 0x18, 0x91, 0x32, 0x3e, 0xf2, 0x81, 0x68, 0x3e,
  0x40, 0xce, 0x60, 0x3d, 0x09, 0xa7, 0x73, 0xbd, 0x37, 0xea, 0xa2, 0xbd,
  0xab, 0x66, 0xaf, 0x3d, 0x54, 0x32, 0x1f, 0xbe, 0xe0, 0xb0, 0xc9, 0x3b,
  0x8b, 0x11, 0x84, 0xbe, 0x78, 0x76, 0x9a, 0xbe, 0x51, 0x93, 0xaf, 0xbe,
  0x2f, 0xc9, 0xba, 0x3d, 0x92, 0xe5, 0x2a, 0xbe, 0x04, 0x50, 0xab, 0xbe,
  0x23, 0x31, 0x59, 0xbe, 0x7c, 0xb2, 0xb6, 0xbe, 0xba, 0xa8, 0x9e, 0x3d,
  0x81, 0x61, 0xd4, 0xbe, 0x4d, 0x73, 0x34, 0x3e, 0x39, 0x09, 0x1d, 0xbe,
  0x5c, 0x88, 0x8d, 0xbd, 0xbd, 0x4e, 0xe9, 0xbd, 0x6f, 0x64, 0xcb, 0xbd,
  0x4d, 0xe5, 0x5f, 0xbe, 0x24, 0x1e, 0xa1, 0xbe, 0x16, 0xba, 0x0a, 0xbe,
  0x1e, 0x63, 0x2a, 0xbc, 0xd9, 0x67, 0xf2, 0x3d, 0x3a, 0xf3, 0xd4, 0x3d,
  0xf8, 0x61, 0x27, 0x3d, 0x30, 0x66, 0x6f, 0x3d, 0x60, 0x8f, 0x6a, 0x3d,
  0x26, 0xa3, 0x3b, 0xbe, 0xef, 0xbd, 0x0b, 0xbe, 0x9e, 0xea, 0x3a, 0x3e,
  0xec, 0x23, 0x5d, 0xbe, 0x94, 0x96, 0x77, 0xbe, 0xfc, 0x03, 0x7c, 0x3e,
  0x76, 0x5d, 0x21, 0xbe, 0xb0, 0x24, 0x7c, 0x3d, 0x4e, 0x5b, 0x81, 0xbd,
  0x80, 0x69, 0xec, 0x3d, 0x88, 0x6a, 0x24, 0x3e, 0x78, 0xb5, 0x17, 0xbe,
  0x00, 0x44, 0x95, 0x3c, 0x96, 0x27, 0x85, 0x3e, 0x10, 0xc3, 0x7c, 0xbd,
  0x5c, 0xe0, 0x74, 0xbd, 0x26, 0x57, 0x31, 0x3e, 0x58, 0x0a, 0x62, 0x3e,
  0x37, 0x26, 0x72, 0xbe, 0xbf, 0x90, 0x46, 0xbe, 0x82, 0xed, 0x43, 0xbe,
  0x48, 0x28, 0x60, 0x3d, 0xe2, 0x56, 0x82, 0xbd, 0x40, 0x13, 0x3f, 0x3d,
  0xb2, 0x60, 0x32, 0xbe, 0x2a, 0xd0, 0x0f, 0xbe, 0x82, 0x05, 0x5f, 0x3e,
  0xe8, 0xc2, 0xd4, 0xbc, 0x90, 0x6a, 0x52, 0x3e, 0x98, 0x17, 0xd9, 0x3d,
  0x01, 0x0f, 0x04, 0x3c, 0xf2, 0xec, 0x15, 0xbe, 0x16, 0xbf, 0xc8, 0x3d,
  0x4c, 0xff, 0x30, 0xbe, 0x6c, 0xfe, 0x5c, 0x3c, 0x62, 0x1d, 0x4c, 0xbd,
  0xf2, 0xc3, 0x18, 0xbd, 0xa1, 0x91, 0xe5, 0x3d, 0x00, 0x1c, 0x44, 0x3d,
  0xe6, 0x73, 0x0e, 0x3e, 0xbf, 0xf0, 0x4f, 0xbe, 0xd8, 0x19, 0x34, 0x3e,
  0x5d, 0x6b, 0x74, 0x38, 0x31, 0x42, 0x47, 0xbe, 0x64, 0xe9, 0x68, 0xbe,
  0x8c, 0xf7, 0x2c, 0x3d, 0x63, 0xf1, 0xd2, 0xbd, 0x0a, 0x19, 0x2f, 0x3e,
  0x0a, 0x9d, 0x45, 0xbe, 0xed, 0xad, 0x0f, 0xbe, 0x57, 0x27, 0x67, 0xbe,
  0xe2, 0x36, 0x3f, 0xbe, 0xcf, 0xc9, 0x10, 0x3e, 0x6d, 0xff, 0xa2, 0xbd,
  0x3c, 0x55, 0x99, 0x3e, 0xff, 0x7d, 0x70, 0x3e, 0x6e, 0xda, 0x4e, 0x3e,
  0x07, 0xa3, 0x8c, 0x3e, 0x15, 0x3c, 0x37, 0xbe, 0xea, 0x9a, 0x20, 0x3e,
  0x53, 0x80, 0xb7, 0xbd, 0x24, 0x90, 0x89, 0xbe, 0x00, 0x86, 0x66, 0x3a,
  0xfb, 0x7f, 0x47, 0xbe, 0xfc, 0x37, 0x33, 0xbd, 0x5e, 0xaf, 0x59, 0x3e,
  0x86, 0x7c, 0x0c, 0x3e, 0x34, 0x17, 0x89, 0xbe, 0x90, 0x36, 0x75, 0x3d,
  0x24, 0x97, 0x01, 0xbd, 0xaa, 0xfb, 0x5e, 0x3e, 0xa6, 0x8b, 0xc4, 0xbd,
  0xac, 0xfe, 0x01, 0xbd, 0xbc, 0x80, 0x68, 0x3e, 0x19, 0x85, 0x45, 0xbe,
  0x30, 0x8b, 0x69, 0xbe, 0x82, 0xb9, 0x1f, 0xbe, 0xda, 0x73, 0x1c, 0x3e,
  0x9c, 0xb6, 0xd0, 0x3d, 0xba, 0x5e, 0xf7, 0xbd, 0xa0, 0x3e, 0x6c, 0x3e,
  0x06, 0xbf, 0x2d, 0x3e, 0x0e, 0xfc, 0x43, 0x3e, 0xe0, 0xec, 0x6c, 0xbc,
  0x3c, 0x0a, 0xb9, 0xbd, 0x28, 0x4a, 0xd1, 0xbd, 0x58, 0xf3, 0x1d, 0x3e,
  0x40, 0x63, 0x4b, 0x3d, 0xb0, 0xaa, 0x99, 0x3c, 0xec, 0xd9, 0x83, 0x3d,
  0x55, 0x94, 0x06, 0xbe, 0xe8, 0x03, 0xbd, 0x3d, 0x98, 0xe5, 0x0f, 0x3e,
  0xa0, 0x85, 0x3e, 0x3c, 0x2a, 0xe5, 0x31, 0xbe, 0x82, 0x2e, 0xc3, 0xbd,
  0xc5, 0xcd, 0x63, 0xbe, 0x6e, 0x3f, 0x7a, 0xbe, 0x44, 0x69, 0x1b, 0x3e,
  0x7a, 0x14, 0xb0, 0xbd, 0x6c, 0x89, 0x80, 0x3e, 0x16, 0x32, 0x30, 0x3e,
  0xe4, 0x5b, 0xe1, 0x3d, 0x7c, 0xa8, 0xba, 0xbd, 0xc4, 0x44, 0x3c, 0x3e,
  0xc0, 0x53, 0x47, 0xbe, 0x90, 0x2c, 0x5c, 0xbd, 0x30, 0x35, 0x8b, 0x3c,
  0x80, 0x1e, 0xce, 0xbb, 0xb8, 0x4d, 0x51, 0xbd, 0xbd, 0x9f, 0x84, 0xbe,
  0x44, 0xc9, 0x52, 0x3e, 0x5c, 0xe5, 0x5a, 0xbd, 0x64, 0x49, 0x07, 0xbd,
  0x8e, 0x2d, 0x16, 0x3e, 0x50, 0x61, 0x58, 0xbd, 0x60, 0xc9, 0x83, 0xbe,
  0x78, 0x4b, 0xd6, 0xbc, 0x1a, 0xb7, 0x2b, 0xbe, 0xa8, 0x36, 0x26, 0xbd,
  0xd2, 0xf2, 0x68, 0xbe, 0x20, 0x89, 0x70, 0x3c, 0x1c, 0xb2, 0xa4, 0x3d,
  0x80, 0xce, 0x7e, 0x3b, 0x00, 0xa8, 0xf6, 0xba, 0xa8, 0x42, 0xcf, 0x3c,
  0x72, 0x92, 0x87, 0xbe, 0x27, 0xdf, 0x27, 0x3e, 0x2a, 0x3a, 0x99, 0xbd,
  0x57, 0xef, 0x3e, 0x3e, 0x05, 0x6f, 0x6f, 0x3d, 0x37, 0xc1, 0x5f, 0x39,
  0xd0, 0xc0, 0x0e, 0xbe, 0x67, 0x65, 0xbd, 0x3c, 0x2c, 0xcb, 0x86, 0xbe,
  0xff, 0x98, 0xfa, 0xbd, 0x76, 0x10, 0x89, 0x3d, 0xef, 0xdc, 0x78, 0x3e,
  0xb2, 0x27, 0x53, 0xbd, 0x3d, 0x7b, 0x84, 0x3d, 0x00, 0x3b, 0x8a, 0xbd,
  0x1c, 0x20, 0x6d, 0x3d, 0x91, 0x76, 0xe5, 0xbd, 0x71, 0x0b, 0x65, 0xbc,
  0xc3, 0x46, 0xb6, 0xbd, 0xd0, 0x61, 0xcb, 0x3e, 0xd1, 0x2f, 0x1f, 0x3d,
  0x4b, 0x91, 0x07, 0xbe, 0x90, 0x5a, 0x96, 0xbd, 0x82, 0xbb, 0x89, 0x3d,
  0xb8, 0x19, 0x36, 0x3d, 0x3f, 0xde, 0x47, 0x3e, 0x70, 0x54, 0x1e, 0xbe,
  0x82, 0xcd, 0xa2, 0xbc, 0xd3, 0x6b, 0x5c, 0x3d, 0x55, 0x95, 0x80, 0xbd,
  0x3e, 0x81, 0x36, 0x3e, 0x1a, 0xa3, 0x28, 0xbe, 0xbc, 0x2d, 0xa4, 0x3d,
  0x84, 0xa6, 0x1a, 0x3e, 0xa0, 0x8e, 0x50, 0x3c, 0x18, 0x4c, 0x07, 0xbe,
  0xc0, 0x26, 0xa0, 0x3b, 0x14, 0xea, 0x1c, 0xbe, 0xad, 0x6f, 0x82, 0xbe,
  0x18, 0x71, 0x62, 0xbe, 0xca, 0x09, 0x2e, 0x3e, 0xe0, 0x6b, 0xf7, 0x3d,
  0xee, 0xe2, 0x56, 0x3e, 0xd5, 0x7e, 0x15, 0xbe, 0x9e, 0xc7, 0x66, 0x3e,
  0x84, 0xd7, 0xbb, 0x3d, 0xa0, 0xf0, 0xf8, 0x3c, 0x70, 0x6b, 0x4e, 0xbe,
  0xe6, 0xb7, 0xbd, 0xbd, 0x42, 0x82, 0x62, 0x3e, 0x18, 0xf7, 0x60, 0xbe,
  0xb2, 0x7b, 0x8b, 0xbe, 0x80, 0x28, 0x5e, 0xbe, 0x80, 0xe3, 0x13, 0x3b,
  0x00, 0xb7, 0x53, 0xbe, 0x56, 0x32, 0x39, 0xbe, 0x64, 0xab, 0xba, 0x3d,
  0xf2, 0x15, 0x85, 0x3e, 0xa2, 0x0d, 0xea, 0xbd, 0x74, 0x5a, 0xa2, 0xbd,
  0x94, 0xad, 0x4b, 0x3e, 0xa8, 0xc6, 0xb8, 0x3d, 0x8c, 0xbb, 0x3f, 0xbd,
  0xdc, 0xf9, 0xe1, 0x3d, 0x3b, 0xe8, 0x69, 0x3e, 0x6b, 0xb2, 0x56, 0x3d,
  0x91, 0x54, 0x9c, 0x3d, 0x01, 0x3b, 0xc3, 0xbd, 0x5a, 0x12, 0x26, 0xbd,
  0x2f, 0x63, 0x81, 0xbe, 0x4f, 0x0a, 0xa1, 0x3d, 0x7b, 0x25, 0x4c, 0x3e,
  0x44, 0x79, 0xcd, 0xbd, 0x4a, 0x84, 0x7d, 0x3c, 0xe8, 0x0e, 0x02, 0x3e,
  0x48, 0x31, 0x62, 0x3e, 0x97, 0x60, 0x19, 0xbe, 0xa0, 0x04, 0x51, 0x3d,
  0x20, 0x8c, 0xb6, 0x3c, 0x7d, 0x4c, 0x1f, 0xbe, 0xd5, 0xfa, 0x22, 0xbe,
  0xc8, 0x26, 0x73, 0x3e, 0x24, 0xdb, 0x4a, 0x3c, 0x02, 0x05, 0xbf, 0x3d,
  0x76, 0x17, 0x7d, 0xbe, 0x82, 0x70, 0x4c, 0xbe, 0xc6, 0xc9, 0x58, 0x3e,
  0x09, 0x89, 0xde, 0xbd, 0xe1, 0xdc, 0x3e, 0x3d, 0x56, 0x6f, 0x79, 0xbe,
  0x31, 0xed, 0xca, 0x3d, 0xe6, 0x01, 0x73, 0xbd, 0x35, 0xdd, 0xc2, 0x3d,
  0x26, 0x3f, 0x54, 0xbe, 0x5e, 0x83, 0x4b, 0xbe, 0xfb, 0x07, 0xf1, 0x3c,
  0xaa, 0x7f, 0xf4, 0x3d, 0xff, 0xbd, 0xe3, 0x3d, 0xd6, 0x92, 0x69, 0x3e,
  0xae, 0x0c, 0x6d, 0x3e, 0x3c, 0xc6, 0x0b, 0xbe, 0xc6, 0xcc, 0xc0, 0x3d,
  0x95, 0x88, 0x16, 0xbe, 0x8f, 0xc7, 0x96, 0xbd, 0x7e, 0x8e, 0x1d, 0xbd,
  0xa5, 0xc0, 0x62, 0x3e, 0xa1, 0xdd, 0xe3, 0x3c, 0x8d, 0x01, 0x8a, 0x3a,
  0xda, 0x13, 0x08, 0x3d, 0xb7, 0xf9, 0xc6, 0x3d, 0xc2, 0x2f, 0x05, 0xbd,
  0x4d, 0x2f, 0xc5, 0xbd, 0x06, 0x8a, 0x73, 0xbe, 0x47, 0xa8, 0x26, 0xbe,
  0x52, 0xc0, 0xa4, 0xbe, 0x43, 0x30, 0x9b, 0xbd, 0x79, 0xd4, 0xc4, 0xbd,
  0x94, 0xb5, 0x8e, 0xbe, 0x83, 0x52, 0x80, 0xbb, 0x54, 0xc2, 0x7e, 0xbe,
  0xc8, 0x85, 0xba, 0xbd, 0xda, 0x5b, 0xc0, 0x3d, 0x15, 0xbf, 0xd9, 0x3d,
  0x02, 0xef, 0x8e, 0xbe, 0x6f, 0x22, 0xb1, 0xbe, 0xe6, 0xee, 0x99, 0x3d,
  0x99, 0xd1, 0x29, 0x3d, 0x9a, 0x1a, 0x5c, 0xbe, 0x42, 0xdf, 0xd7, 0xbd,
  0xbc, 0xc0, 0xa3, 0xbd, 0x8e, 0x1b, 0x13, 0xbe, 0xac, 0x7d, 0x64, 0xbe,
  0x38, 0xd5, 0x1e, 0x3d, 0xa0, 0x4b, 0xea, 0xbd, 0xdc, 0x6f, 0x79, 0xbe,
  0xcb, 0x1d, 0x1a, 0xbe, 0x18, 0x7d, 0x1a, 0xbe, 0x0b, 0x1a, 0x2d, 0xbe,
  0x4c, 0xac, 0x12, 0xbd, 0xb2, 0x5a, 0xd0, 0xbd, 0x6e, 0x92, 0x34, 0x3e,
  0xe8, 0x0e, 0x76, 0x3d, 0xa6, 0xcd, 0x84, 0x3e, 0x00, 0xe3, 0xde, 0x3b,
  0xb4, 0x04, 0xd9, 0x3d, 0x7a, 0xeb, 0x25, 0x3e, 0xda, 0x89, 0x0d, 0xbe,
  0x62, 0x80, 0xa2, 0xbd, 0x50, 0xd3, 0xe0, 0x3d, 0x00, 0x85, 0x0e, 0xbb,
  0xf0, 0x76, 0xb3, 0xbd, 0x4a, 0x48, 0x89, 0x3e, 0x56, 0x62, 0x08, 0xbe,
  0x86, 0x56, 0x08, 0x3e, 0x30, 0x24, 0xbb, 0x3c, 0x22, 0xa6, 0xf7, 0xbd,
  0xe6, 0x22, 0x22, 0x3e, 0xa0, 0x96, 0x98, 0xbc, 0x40, 0x23, 0x5b, 0x3d,
  0xb0, 0x61, 0xa4, 0x3c, 0xb2, 0x94, 0x04, 0xbe, 0xdf, 0x09, 0xc2, 0xbd,
  0x0b, 0x84, 0x0d, 0x3e, 0xcc, 0x8c, 0xdc, 0x3d, 0xa6, 0x82, 0x8b, 0xbe,
  0x77, 0x2a, 0x32, 0x3e, 0x7b, 0x6f, 0x11, 0x3e, 0x1b, 0x06, 0x66, 0xbe,
  0xbb, 0x76, 0x32, 0x3e, 0xbb, 0x36, 0x31, 0xbe, 0xdc, 0x8c, 0x4b, 0x3d,
  0xba, 0xba, 0x63, 0xbe, 0x27, 0xaa, 0x17, 0xbe, 0x80, 0x0f, 0x24, 0x3d,
  0x06, 0xa6, 0xee, 0x3d, 0x47, 0xd0, 0x1c, 0x3e, 0xbb, 0x40, 0x0f, 0xbe,
  0xcc, 0x43, 0xc6, 0xbc, 0xb1, 0xf5, 0x6a, 0xbe, 0x4f, 0xd3, 0x4f, 0xbe,
  0x19, 0xda, 0x35, 0x3d, 0xac, 0x9b, 0x2f, 0xbe, 0x60, 0xa8, 0x9d, 0xbe,
  0xdc, 0xbb, 0x74, 0xbe, 0xd3, 0x48, 0xf0, 0xbc, 0x79, 0x7a, 0x99, 0xbe,
  0x99, 0x1b, 0xf1, 0xbd, 0xb1, 0x04, 0x3e, 0x3d, 0xb0, 0x6d, 0xc5, 0xbd,
  0x46, 0x00, 0xcd, 0x3d, 0xca, 0xcc, 0xdc, 0x3b, 0xa4, 0xc9, 0xb3, 0x3d,
  0x88, 0x32, 0xec, 0xbc, 0x62, 0x73, 0x5a, 0xbe, 0x0f, 0x9c, 0x2b, 0xbe,
  0x48, 0xdf, 0x6d, 0xbe, 0x16, 0xb5, 0x5d, 0x3e, 0x03, 0xda, 0x71, 0xbe,
  0x40, 0xbb, 0x0b, 0xbc, 0xf2, 0x34, 0x27, 0xbe, 0x88, 0x5b, 0x82, 0x3d,
  0xc0, 0x55, 0xd6, 0xbc, 0xfe, 0xb3, 0x80, 0x3e, 0x26, 0x4c, 0x69, 0xbe,
  0x80, 0x75, 0x84, 0x3b, 0x68, 0xff, 0x55, 0x3d, 0x80, 0x54, 0xc6, 0xbc,
  0x78, 0x45, 0xfa, 0xbd, 0x8b, 0xd3, 0x6f, 0xbe, 0xca, 0xd6, 0x5d, 0x3e,
  0x23, 0xe6, 0x80, 0xbe, 0x80, 0x06, 0x68, 0x3e, 0x3c, 0x5e, 0xcb, 0x3d,
  0xe8, 0x04, 0x77, 0x3d, 0x5e, 0x37, 0xf2, 0xbd, 0x64, 0x33, 0x38, 0xbe,
  0x50, 0xf6, 0x3c, 0x3d, 0xb2, 0x84, 0x80, 0x3e, 0xfe, 0x7d, 0x69, 0xbe,
  0x23, 0xcc, 0x7b, 0xbe, 0x80, 0xfe, 0x6a, 0xbb, 0x10, 0x5e, 0xc7, 0x3d,
  0x50, 0x01, 0xae, 0xbc, 0xec, 0xd8, 0xbe, 0xbd, 0x9b, 0x6f, 0x35, 0xbe,
  0x53, 0x3e, 0x4d, 0xbe, 0xab, 0x8f, 0x0c, 0x3e, 0xa0, 0xac, 0x44, 0xbe,
  0x00, 0x23, 0x13, 0xbe, 0x46, 0xca, 0x7b, 0x3d, 0x07, 0xcf, 0x2d, 0xbe,
  0xfb, 0x4a, 0x29, 0x3e, 0x0f, 0x3e, 0x94, 0x3d, 0x33, 0x93, 0xa7, 0xbc,
  0x21, 0xde, 0x65, 0xbe, 0x4d, 0x11, 0x84, 0xbe, 0x8d, 0x09, 0x50, 0x3e,
  0x1b, 0x67, 0x3b, 0x3e, 0xa3, 0xbe, 0x7f, 0x3e, 0x02, 0x68, 0x65, 0xbd,
  0x50, 0x33, 0x88, 0x3e, 0x0f, 0xbe, 0x1a, 0x3d, 0x9d, 0x62, 0x1f, 0x3e,
  0xdb, 0x9a, 0x67, 0x3e, 0x23, 0x65, 0xaf, 0xbd, 0x2b, 0xc5, 0x42, 0xbe,
  0x9f, 0xde, 0x89, 0xbc, 0xb3, 0xcb, 0xd9, 0xbd, 0x02, 0x69, 0xd0, 0xbd,
  0x80, 0x8a, 0x27, 0x3b, 0x85, 0x2c, 0x8c, 0xbd, 0x44, 0x3d, 0x0f, 0x3e,
  0x44, 0xdd, 0x73, 0x3e, 0xa5, 0x43, 0x53, 0x3e, 0x11, 0x68, 0x21, 0x3e,
  0x63, 0x82, 0xf4, 0x3d, 0x62, 0x35, 0xe2, 0x3c, 0x09, 0xcd, 0x39, 0xbe,
  0x52, 0x66, 0x7c, 0xbe, 0x76, 0x49, 0x22, 0x3e, 0x62, 0xe9, 0x56, 0xbb,
  0x34, 0x44, 0x74, 0x3e, 0x39, 0x88, 0x9b, 0xbd, 0x0c, 0x9a, 0x06, 0xbe,
  0x66, 0xc0, 0x86, 0xbe, 0x45, 0x23, 0xa9, 0x3d, 0x4f, 0x43, 0x8b, 0x3e,
  0xc2, 0x69, 0xab, 0x3e, 0x9d, 0xcc, 0x02, 0xbe, 0xec, 0x25, 0x62, 0xbd,
  0xf4, 0xc3, 0x52, 0x3e, 0xb2, 0x72, 0x85, 0xbd, 0x4d, 0xa4, 0x9d, 0x3d,
  0x75, 0xed, 0x68, 0xbd, 0x32, 0x87, 0x0e, 0x3e, 0xd3, 0x88, 0x95, 0x3e,
  0xa2, 0xf1, 0x7b, 0xbd, 0xb5, 0x60, 0x08, 0xbe, 0x96, 0x48, 0x97, 0x3e,
  0x3e, 0x39, 0x30, 0x3e, 0xa0, 0x09, 0x44, 0xbd, 0x7f, 0x9d, 0x2a, 0xbd,
  0xdf, 0x8f, 0x3d, 0x3e, 0xb5, 0x37, 0xc0, 0xbd, 0xa4, 0xd3, 0x9a, 0x3e,
  0xa8, 0x89, 0x2c, 0x3e, 0xb4, 0x04, 0x92, 0x3e, 0x28, 0xd9, 0x16, 0xbe,
  0x04, 0xbb, 0xe8, 0x3d, 0xab, 0xe5, 0xc6, 0x3d, 0x0d, 0x9f, 0xff, 0x3d,
  0x15, 0xa3, 0x5e, 0x3e, 0x90, 0x21, 0x5c, 0xbc, 0x86, 0xc5, 0x51, 0x3e,
  0x58, 0x6f, 0x35, 0x3e, 0x7d, 0x9f, 0x61, 0xbd, 0x2b, 0x4d, 0xe6, 0xbd,
  0x71, 0x34, 0x53, 0xbe, 0x09, 0x98, 0xf0, 0x3d, 0x11, 0x5d, 0x0a, 0x3c,
  0x97, 0xda, 0x55, 0xbe, 0xe2, 0xbc, 0x60, 0x3e, 0x1c, 0x55, 0x98, 0xbd,
  0x7c, 0x27, 0xe1, 0x3d, 0xce, 0xbe, 0x57, 0xbe, 0xee, 0x48, 0x5b, 0x3e,
  0xd2, 0x5f, 0x32, 0xbe, 0xec, 0x7f, 0xdb, 0x3b, 0xa4, 0x84, 0x5c, 0x3c,
  0x24, 0xc5, 0xac, 0xbd, 0x9d, 0xcf, 0xb2, 0xbb, 0xe7, 0x67, 0x67, 0x3d,
  0x10, 0xbb, 0x7f, 0x3d, 0x47, 0x57, 0x3e, 0xbe, 0x04, 0x60, 0x59, 0xbe,
  0xd8, 0xa9, 0x95, 0xbd, 0x19, 0x6d, 0x79, 0x3c, 0x16, 0x0e, 0x1b, 0x3c,
  0x5e, 0xda, 0xf1, 0x3d, 0xa8, 0x12, 0x02, 0x3e, 0xcd, 0xe0, 0x2d, 0x3e,
  0xbd, 0xa1, 0xa5, 0x3d, 0x8d, 0xba, 0x25, 0xbe, 0xbf, 0x80, 0xe0, 0xbc,
  0xf0, 0x9e, 0xc5, 0xbd, 0x0c, 0x1d, 0x16, 0x3e, 0xc3, 0xbd, 0x8d, 0xbd,
  0x96, 0x17, 0xc8, 0x3c, 0x6d, 0x28, 0xd1, 0x3d, 0x49, 0x62, 0x59, 0xbe,
  0xac, 0xde, 0x7a, 0xbc, 0x95, 0x72, 0x87, 0xbd, 0x27, 0x83, 0xf1, 0xbd,
  0x7e, 0x54, 0x44, 0xbe, 0xee, 0xe6, 0x75, 0xbe, 0x2d, 0x5c, 0x12, 0x3e,
  0x43, 0x98, 0xae, 0xbe, 0xc3, 0x8f, 0xa1, 0x3c, 0x1e, 0x3a, 0xa9, 0xbe,
  0x6e, 0x7a, 0xd9, 0xbd, 0x9c, 0x9b, 0x25, 0xbe, 0x6b, 0x72, 0x83, 0xbe,
  0x18, 0x78, 0xba, 0xbd, 0xf2, 0xa1, 0xcf, 0xbd, 0xcb, 0x41, 0xc3, 0x3d,
  0xa6, 0x0e, 0xf8, 0xbd, 0x23, 0x23, 0x2a, 0xbe, 0xaf, 0xed, 0x37, 0xbe,
  0x3d, 0x48, 0xa3, 0x3c, 0x46, 0x8a, 0x1d, 0xbd, 0xc9, 0x61, 0x7e, 0x3d,
  0xa4, 0x36, 0x05, 0xbd, 0xf0, 0xcb, 0xd0, 0xbd, 0x87, 0xe1, 0x0c, 0xbe,
  0xf9, 0x25, 0x42, 0xbe, 0xb4, 0x27, 0x87, 0xbd, 0xa0, 0x33, 0xeb, 0x3d,
  0x72, 0x23, 0x8b, 0xbe, 0x7a, 0x99, 0x35, 0xbe, 0xa2, 0x94, 0xf4, 0xbd,
  0xce, 0xb6, 0x47, 0xbe, 0x6c, 0xce, 0x82, 0xbd, 0xa7, 0xc7, 0x7f, 0xbe,
  0x32, 0xe9, 0x8b, 0x3e, 0x20, 0x18, 0x87, 0x3d, 0xfa, 0x7c, 0x39, 0x3e,
  0x00, 0x63, 0x86, 0x3c, 0x92, 0x9a, 0x33, 0xbe, 0xd0, 0x90, 0x4a, 0x3e,
  0x00, 0x58, 0xef, 0xbb, 0xe8, 0x13, 0x06, 0x3e, 0xd2, 0xb8, 0x2e, 0xbe,
  0x9e, 0xe5, 0x3d, 0x3e, 0x98, 0xbd, 0x48, 0x3d, 0xb8, 0x5a, 0x58, 0x3d,
  0xf8, 0x5b, 0x38, 0xbe, 0x2e, 0x0b, 0x34, 0xbe, 0xcc, 0xb0, 0x75, 0x3e,
  0xd4, 0xe9, 0x02, 0xbe, 0xc0, 0x1b, 0x67, 0x3d, 0x70, 0xa9, 0x23, 0x3d,
  0xd6, 0x4f, 0xb8, 0xbd, 0xb4, 0x22, 0xce, 0x3d, 0xa2, 0xcd, 0x67, 0x3e,
  0x6c, 0x9e, 0x18, 0x3d, 0xa0, 0xa2, 0x6a, 0x3c, 0xe6, 0x4c, 0x9c, 0xbc,
  0xc6, 0x93, 0xbd, 0xbc, 0xd1, 0x19, 0x10, 0x3e, 0x5f, 0xf1, 0xd9, 0xbd,
  0xce, 0x62, 0xe8, 0xbd, 0x5a, 0xcd, 0x36, 0xbe, 0x5c, 0xff, 0x88, 0xbd,
  0xda, 0x23, 0x20, 0x3e, 0xc1, 0xfa, 0xb8, 0x3c, 0x4c, 0x42, 0x4f, 0x3c,
  0xd5, 0x8e, 0x3e, 0x3e, 0xae, 0x31, 0x2a, 0x3e, 0x49, 0x50, 0x12, 0xbe,
  0x00, 0x16, 0x81, 0xbd, 0xa9, 0x82, 0x83, 0xbe, 0x01, 0x23, 0x8a, 0x3e,
  0x47, 0x38, 0xd1, 0x3d, 0x04, 0x19, 0x7e, 0x3e, 0x32, 0x7c, 0xfd, 0x3c,
  0xeb, 0x26, 0x4e, 0xbd, 0x4c, 0xe3, 0xf8, 0x3d, 0xa9, 0x83, 0xaf, 0x3c,
  0xb6, 0x47, 0x08, 0x3e, 0xdb, 0xe0, 0x19, 0xbd, 0x2b, 0x79, 0x51, 0x3c,
  0x94, 0x91, 0x04, 0x3e, 0xec, 0xcd, 0x4c, 0x3d, 0xd4, 0xc6, 0xb9, 0x3d,
  0xd7, 0xe2, 0x39, 0x3e, 0xad, 0xa3, 0x1c, 0xbe, 0xac, 0x25, 0x7d, 0x3e,
  0x50, 0x71, 0x2c, 0xbc, 0x18, 0x42, 0x8d, 0x3d, 0x94, 0x11, 0x1f, 0xbe,
  0xdb, 0xe5, 0x3a, 0xbe, 0x14, 0xd2, 0x09, 0xbd, 0x42, 0x9e, 0x88, 0xbe,
  0x94, 0x53, 0x6a, 0xbe, 0xff, 0x45, 0x74, 0x3d, 0xe9, 0x5e, 0xca, 0x3d,
  0x6f, 0x3f, 0x75, 0xbd, 0xc2, 0xdd, 0x18, 0xbe, 0x1e, 0x5e, 0x2b, 0x3e,
  0xca, 0xbb, 0x74, 0x3e, 0xf0, 0x6a, 0x10, 0x3e, 0x4a, 0x57, 0x5f, 0xbd,
  0x4e, 0xed, 0x01, 0xbe, 0xfd, 0x11, 0xee, 0xbb, 0x2e, 0x32, 0xbd, 0x3c,
  0xd5, 0x81, 0x99, 0xbc, 0x87, 0x88, 0x60, 0xbe, 0x40, 0x67, 0x54, 0xbc,
  0xc3, 0x14, 0xde, 0xbd, 0xb6, 0xef, 0x6d, 0x3e, 0x37, 0xeb, 0x2e, 0x3c,
  0xcf, 0x39, 0x82, 0x3e, 0xa7, 0x50, 0x8b, 0xbe, 0x49, 0x4f, 0xcb, 0x3d,
  0x75, 0xe1, 0xcf, 0x3c, 0xc5, 0x3a, 0x64, 0xbe, 0x67, 0xe5, 0x9c, 0xbc,
  0x70, 0x01, 0x14, 0x3e, 0x5a, 0xea, 0x84, 0xbe, 0x5c, 0xd3, 0x23, 0x3e,
  0xc6, 0x86, 0x9d, 0x3b, 0x18, 0x80, 0x59, 0x3e, 0x20, 0x2a, 0xb9, 0x3d,
  0x95, 0xf1, 0x0c, 0xbe, 0x81, 0x6a, 0x60, 0xbe, 0x36, 0xb0, 0x35, 0x3e,
  0x8a, 0x1f, 0x08, 0x3e, 0x72, 0xad, 0x80, 0xbe, 0xcb, 0xa9, 0x24, 0x3e,
  0x6a, 0xc4, 0x68, 0x3e, 0xb6, 0xe4, 0x8b, 0x3d, 0x32, 0x29, 0x34, 0xbe,
  0xf7, 0x6c, 0x10, 0x3e, 0xa9, 0xc8, 0x32, 0xbc, 0xe1, 0x23, 0x8f, 0xbc,
  0xda, 0x4a, 0x29, 0x3e, 0x22, 0x7c, 0x05, 0xbd, 0x1f, 0x6f, 0xc5, 0xbc,
  0xd9, 0xa1, 0x29, 0xbe, 0x6a, 0x40, 0x51, 0xbe, 0xd0, 0xb4, 0x86, 0x3e,
  0x25, 0x08, 0x2e, 0xbe, 0xbb, 0x91, 0x28, 0xbe, 0x30, 0xcc, 0x36, 0xbe,
  0x50, 0x30, 0x7d, 0x3d, 0x47, 0xca, 0x3f, 0x3e, 0x90, 0xa1, 0x46, 0x3e,
  0xf2, 0xd9, 0x8e, 0xbd, 0xd5, 0x56, 0xc8, 0x3d, 0xe0, 0x5d, 0x6c, 0x3c,
  0xb6, 0xf0, 0xe4, 0xbd, 0x70, 0x27, 0x54, 0xbe, 0xcb, 0xcf, 0x71, 0xbe,
  0x3a, 0x3d, 0x82, 0xbe, 0xf4, 0x9f, 0x60, 0xbd, 0x60, 0xfa, 0x08, 0x3d,
  0x00, 0xf8, 0x54, 0xbe, 0x04, 0xc5, 0x66, 0xbd, 0x58, 0xdd, 0x3a, 0xbd,
  0xca, 0xb4, 0x08, 0x3e, 0x94, 0x7b, 0xb1, 0x3d, 0x82, 0x30, 0x6f, 0xbe,
  0xf4, 0x3d, 0x51, 0x3e, 0x50, 0x84, 0xc6, 0xbc, 0x02, 0x43, 0x5f, 0x3e,
  0xe0, 0x1a, 0x55, 0xbd, 0xf4, 0xd9, 0xc6, 0x3d, 0x06, 0xc1, 0x1f, 0xbe,
  0xa0, 0xb4, 0x39, 0x3c, 0x04, 0xef, 0x92, 0xbd, 0x44, 0x4e, 0x83, 0x3e,
  0x40, 0x9a, 0x20, 0x3d, 0x2c, 0x54, 0x83, 0xbd, 0x06, 0xaa, 0xd7, 0xbd,
  0x74, 0xe4, 0xc3, 0xbd, 0xf0, 0x7a, 0xa2, 0x3d, 0x42, 0x36, 0x39, 0x3e,
  0xd4, 0x57, 0x7e, 0x3e, 0x6c, 0xda, 0x50, 0x3e, 0x58, 0x6f, 0xfd, 0x3d,
  0x8e, 0xa6, 0x8b, 0x3e, 0x80, 0x51, 0x4c, 0xbb, 0x14, 0x59, 0x74, 0x3e,
  0x22, 0x82, 0x4c, 0xbe, 0x08, 0xda, 0x5e, 0xbe, 0xbc, 0x55, 0x0d, 0x3e,
  0x34, 0xb5, 0x8e, 0x3d, 0x29, 0x25, 0x2c, 0xbe, 0x93, 0x46, 0x8b, 0xbe,
  0x12, 0xb8, 0x34, 0xbe, 0x98, 0x1a, 0x3e, 0xbd, 0x24, 0x4c, 0x4f, 0xbe,
  0x48, 0x11, 0xfd, 0x3d, 0x84, 0xb8, 0xbd, 0x3d, 0x90, 0x44, 0x1c, 0xbe,
  0x96, 0x06, 0x2a, 0x3e, 0x18, 0x9c, 0xa5, 0x3d, 0x70, 0x5a, 0x17, 0x3d,
  0x40, 0xb9, 0x60, 0x3c, 0xec, 0x37, 0x86, 0x3e, 0xc0, 0x2e, 0x4b, 0xbd,
  0x9c, 0xcc, 0x06, 0xbe, 0x9c, 0x65, 0xbb, 0x3d, 0x6e, 0x58, 0xea, 0xbd,
  0x58, 0x40, 0x86, 0xbe, 0xd0, 0x90, 0x1e, 0x3e, 0x00, 0xa7, 0x52, 0x3d,
  0xd0, 0x89, 0xe6, 0x3c, 0xf4, 0xf8, 0x00, 0x3e, 0x24, 0x89, 0x05, 0xbd,
  0xcc, 0x4e, 0xfc, 0x3d, 0x80, 0x2a, 0x6e, 0xbc, 0xc0, 0x6a, 0xfa, 0xbd,
  0xe5, 0x36, 0x1f, 0xbe, 0xf2, 0x34, 0x4d, 0xbe, 0x5b, 0x5c, 0x09, 0xbe,
  0x24, 0xdc, 0x58, 0xbd, 0x32, 0x9d, 0x7c, 0xbe, 0xd8, 0xff, 0x3e, 0xbe,
  0xdc, 0xab, 0x0d, 0xbe, 0xb8, 0x7a, 0x87, 0x3d, 0x80, 0xb2, 0xa9, 0x3c,
  0x7b, 0xf6, 0x4d, 0xbe, 0x4c, 0x85, 0x8c, 0x3d, 0xb4, 0xac, 0x54, 0xbe,
  0x90, 0xea, 0xc8, 0x3c, 0x90, 0x03, 0xe5, 0x3c, 0x3e, 0xae, 0x3b, 0x3e,
  0x2c, 0xd0, 0xfc, 0x3d, 0xe1, 0x24, 0x88, 0xbe, 0x60, 0x68, 0x29, 0xbc,
  0xcf, 0x2d, 0x8a, 0xbe, 0x28, 0xa8, 0xbc, 0xbd, 0x02, 0xe1, 0x82, 0x3e,
  0x61, 0xcc, 0x31, 0xbe, 0xfc, 0x6d, 0xd2, 0x3d, 0xf0, 0xd3, 0xc7, 0x3c,
  0x58, 0xec, 0x74, 0x3e, 0xd3, 0xbf, 0x83, 0xbe, 0xec, 0xa7, 0x2d, 0x3e,
  0x1e, 0xe2, 0x8a, 0x3e, 0x68, 0x7a, 0x4a, 0xbd, 0xac, 0x6c, 0x72, 0x3e,
  0x5c, 0xe7, 0x28, 0x3e, 0x00, 0xce, 0x37, 0x3c, 0x80, 0xeb, 0x37, 0x3e,
  0x2e, 0x87, 0xde, 0xbd, 0x20, 0x1b, 0x2c, 0xbc, 0x22, 0xe6, 0x40, 0x3d,
  0x6c, 0xec, 0x3a, 0xbe, 0x21, 0x72, 0x44, 0xbd, 0xbc, 0x63, 0x42, 0x3e,
  0xd0, 0x1d, 0x8f, 0xbe, 0x6d, 0xd4, 0x14, 0xbe, 0x91, 0x1c, 0x11, 0x3e,
  0xc9, 0x73, 0x4e, 0x3e, 0x4c, 0x2b, 0xb6, 0x3d, 0xed, 0x35, 0xe0, 0xbd,
  0x76, 0x87, 0x27, 0xbe, 0xd1, 0x8e, 0xa9, 0xbc, 0xd8, 0x63, 0x3f, 0xbd,
  0x9e, 0x43, 0xb3, 0xbd, 0xb9, 0x86, 0xe0, 0x3d, 0xcd, 0xe4, 0xfa, 0x3d,
  0x05, 0xfa, 0x96, 0x3d, 0xc4, 0x2e, 0x47, 0xbe, 0xe0, 0x96, 0x7e, 0xbd,
  0xce, 0x02, 0xb6, 0xbc, 0x77, 0x11, 0xb3, 0xbd, 0x8b, 0x01, 0x16, 0x3c,
  0x40, 0x2d, 0x15, 0x3e, 0xf7, 0x31, 0x4c, 0xbe, 0xc6, 0xf5, 0x6e, 0xbe,
  0xa7, 0xdc, 0xd0, 0x3c, 0xb2, 0x65, 0x6c, 0x3e, 0x25, 0x6d, 0x83, 0x3d,
  0x34, 0x94, 0xa5, 0x3c, 0x62, 0x22, 0x4b, 0x3e, 0x58, 0xc6, 0x0a, 0xbe,
  0xaf, 0x2a, 0xee, 0x3d, 0x2b, 0x74, 0x66, 0xbe, 0x3f, 0x12, 0x25, 0xbe,
  0x43, 0xba, 0xea, 0x3d, 0xb9, 0x44, 0x05, 0x3e, 0x6b, 0xb1, 0xb6, 0xbd,
  0x21, 0x19, 0x07, 0xbd, 0xf9, 0xa9, 0x5c, 0xbe, 0x07, 0x85, 0x07, 0x3d,
  0x29, 0xb5, 0xa6, 0xbb, 0x73, 0x4f, 0x21, 0xbe, 0x8d, 0x6e, 0x85, 0x3e,
  0x39, 0xea, 0x8d, 0x3c, 0x3c, 0x0c, 0x17, 0xbe, 0x6b, 0xa7, 0x15, 0xbe,
  0xb1, 0x20, 0xa3, 0xbd, 0x59, 0x8e, 0xae, 0x3d, 0x5c, 0x73, 0x41, 0x3d,
  0x95, 0xb6, 0x06, 0xbc, 0x78, 0xca, 0x4a, 0x3e, 0x99, 0x54, 0x5f, 0xbe,
  0x1e, 0x29, 0x02, 0x3e, 0xf2, 0x46, 0x09, 0xbe, 0x16, 0x4c, 0xcc, 0xbd,
  0xc2, 0x5d, 0x6e, 0xbe, 0x81, 0x60, 0xa4, 0x3d, 0x51, 0x6c, 0x68, 0x3e,
  0xd3, 0x7c, 0x29, 0x3e, 0xcf, 0xc5, 0x04, 0xbe, 0xa7, 0x95, 0x8c, 0x3d,
  0x9f, 0x89, 0xe6, 0xbd, 0x3e, 0x49, 0x87, 0xbe, 0xcb, 0xce, 0xab, 0x3a,
  0x11, 0x84, 0xe3, 0xbd, 0x67, 0x23, 0x7f, 0x3d, 0xaa, 0x78, 0x31, 0xbe,
  0x58, 0x37, 0x75, 0x3e, 0x8a, 0xfa, 0x77, 0xbe, 0xc0, 0xb0, 0x05, 0x3e,
  0xad, 0x7e, 0xe5, 0x3d, 0x10, 0xd0, 0x09, 0x3d, 0x51, 0x91, 0xfc, 0xbd,
  0x64, 0x95, 0x2c, 0x3e, 0xc8, 0x70, 0x7e, 0xbe, 0xb9, 0xe0, 0x3c, 0x3c,
  0x98, 0x54, 0x23, 0x3e, 0xc8, 0xd8, 0x77, 0x3e, 0x58, 0x1c, 0x1c, 0x3d,
  0xc2, 0x0b, 0x74, 0xbe, 0x11, 0x01, 0xad, 0xbc, 0xfe, 0x0f, 0x90, 0xbe,
  0xcc, 0x23, 0x3a, 0x3e, 0x99, 0x80, 0xae, 0x3d, 0xfc, 0xfe, 0x70, 0x3e,
  0x0b, 0x70, 0x82, 0xbe, 0xdc, 0xa0, 0xd4, 0xbc, 0x0a, 0xc1, 0x41, 0xbe,
  0xb5, 0xab, 0x09, 0x3e, 0x2b, 0x94, 0xd7, 0xbc, 0x0b, 0x7f, 0x3a, 0xbe,
  0x05, 0xfd, 0xa3, 0xbc, 0x15, 0x66, 0x19, 0x3e, 0xb4, 0x4f, 0xb2, 0x3d,
  0x84, 0x9d, 0x70, 0x3e, 0x75, 0x49, 0x7b, 0x3d, 0xe5, 0x8e, 0x1a, 0xbd,
  0x06, 0x97, 0x36, 0x3e, 0x73, 0xcf, 0x9a, 0xbd, 0x2c, 0xe7, 0x80, 0xbd,
  0x8b, 0x5f, 0x74, 0xbe, 0x2c, 0x36, 0xaa, 0xbd, 0x45, 0x19, 0x62, 0xbe,
  0x48, 0xf6, 0x5b, 0xbe, 0xd8, 0xd8, 0x80, 0xbb, 0xba, 0xa8, 0x85, 0xbd,
  0x08, 0x16, 0xb8, 0xbd, 0xc6, 0x45, 0xd6, 0xbd, 0x18, 0x09, 0x63, 0x3e,
  0xb9, 0x3f, 0x27, 0xbe, 0x7e, 0xbc, 0x44, 0x3e, 0x2a, 0xdc, 0xba, 0x3d,
  0x50, 0x3d, 0x01, 0xbe, 0x8f, 0x03, 0x6b, 0xbe, 0x52, 0xd2, 0x26, 0xbd,
  0x6a, 0xd3, 0x10, 0xbe, 0xb4, 0xcf, 0xa2, 0x3c, 0x6b, 0xec, 0x68, 0x3e,
  0x26, 0x87, 0x3d, 0x3e, 0x5b, 0xab, 0xba, 0xbd, 0x3b, 0xff, 0x0b, 0x3e,
  0x33, 0x21, 0xdb, 0xbc, 0x1e, 0xe9, 0xda, 0x3d, 0x1a, 0x16, 0x12, 0xbc,
  0x10, 0xef, 0x89, 0xbe, 0xf8, 0x5d, 0x45, 0xbe, 0xc7, 0x3d, 0x8c, 0x3d,
  0x19, 0xef, 0x60, 0x3d, 0xc8, 0xf2, 0x24, 0x3e, 0xb4, 0x66, 0x3c, 0x3e,
  0x62, 0xf8, 0xdb, 0xbd, 0x90, 0x35, 0xe3, 0xbd, 0x2e, 0x82, 0x4b, 0x3e,
  0x10, 0xba, 0x4d, 0x3e, 0xca, 0xae, 0xd5, 0xbd, 0x67, 0x5f, 0xa9, 0xbc,
  0x53, 0x8e, 0xd0, 0x3c, 0x4a, 0xca, 0x2b, 0xbe, 0x0f, 0x00, 0x53, 0xbe,
  0x1d, 0xf1, 0x7b, 0xbe, 0x03, 0x6f, 0x2d, 0x3e, 0x95, 0x19, 0x85, 0x3d,
  0x2a, 0x96, 0x68, 0x3e, 0xe4, 0x53, 0x2a, 0x3e, 0x56, 0xd4, 0x03, 0x3e,
  0xb1, 0x9c, 0x54, 0xbe, 0xa2, 0x5a, 0xf2, 0xbd, 0xaf, 0x55, 0x43, 0x3d,
  0xc4, 0xaa, 0x19, 0xbe, 0xcc, 0xfd, 0x84, 0xbc, 0x7b, 0x8a, 0xf9, 0xbd,
  0x94, 0x34, 0x64, 0x3b, 0xbf, 0xd9, 0x33, 0x3e, 0x0a, 0xf7, 0xb7, 0x3d,
  0x3b, 0x29, 0x01, 0x3e, 0x8b, 0x32, 0x7e, 0xbc, 0xb0, 0x8e, 0x37, 0xbe,
  0xcf, 0xb6, 0xf4, 0x3d, 0x9d, 0xa8, 0x91, 0x3d, 0x54, 0xfd, 0xaa, 0xbd,
  0x54, 0x8f, 0x68, 0x3a, 0xcb, 0x50, 0xaf, 0x3d, 0x5d, 0xea, 0xcc, 0x3d,
  0x42, 0x89, 0xaa, 0x3c, 0x68, 0xe7, 0x15, 0xbe, 0x41, 0xfd, 0xc8, 0xbc,
  0x88, 0x8f, 0xe3, 0xbd, 0xbd, 0x88, 0x0b, 0x3e, 0xeb, 0xed, 0xdf, 0xbe,
  0x2b, 0x28, 0x98, 0xbe, 0x09, 0xf4, 0x8b, 0xbe, 0x75, 0x36, 0x8d, 0xbb,
  0x8e, 0xd8, 0xf5, 0x3d, 0xa1, 0xdf, 0x9b, 0xbe, 0x53, 0x7c, 0xb4, 0xbe,
  0xfb, 0xc8, 0xf3, 0xbd, 0x9c, 0x73, 0xb6, 0xbc, 0x3c, 0x01, 0xa1, 0xba,
  0x6f, 0xae, 0x05, 0x3e, 0x3b, 0x0d, 0x70, 0x3d, 0xa7, 0xe8, 0x50, 0x3e,
  0xc3, 0xbb, 0x8a, 0xbe, 0xac, 0xd3, 0xe4, 0xbe, 0xe8, 0x78, 0x01, 0x3e,
  0xd5, 0xe9, 0xd2, 0xbd, 0xe5, 0xcb, 0x83, 0xbe, 0xeb, 0x48, 0x03, 0xbe,
  0x1c, 0x7e, 0xa8, 0x3e, 0x47, 0xd4, 0x28, 0x3e, 0x0e, 0x11, 0x73, 0x3e,
  0x26, 0xd8, 0x4f, 0xbe, 0xc7, 0x15, 0x2e, 0x3e, 0xc4, 0x50, 0x4c, 0xbe,
  0x56, 0x0b, 0x21, 0xbe, 0x02, 0x76, 0x0b, 0x3e, 0xf6, 0x7f, 0x88, 0xbe,
  0xc1, 0x81, 0x45, 0x3e, 0x79, 0x11, 0x9c, 0x3d, 0x72, 0xc6, 0xc3, 0xbc,
  0x38, 0x15, 0xe8, 0x3d, 0x14, 0xb1, 0x3f, 0xbd, 0x7d, 0xb7, 0x11, 0xbe,
  0x9e, 0xd4, 0x66, 0xbe, 0xe7, 0x8b, 0xf6, 0x3c, 0x84, 0xee, 0x4c, 0xbe,
  0xd3, 0xde, 0x0e, 0xbe, 0xb7, 0x9f, 0x08, 0x3e, 0x5e, 0x66, 0xbc, 0xbd,
  0xf8, 0x9b, 0xb0, 0x3d, 0xc3, 0xd4, 0xa0, 0xbd, 0x51, 0xfc, 0x61, 0x3e,
  0x80, 0x14, 0x11, 0x3e, 0x59, 0x33, 0x3d, 0x3e, 0x52, 0xc7, 0x8d, 0x3c,
  0xa9, 0x03, 0xcf, 0x3d, 0xd8, 0x1f, 0x50, 0xbe, 0x8e, 0xfd, 0x90, 0xbc,
  0xca, 0x6c, 0x81, 0x3e, 0x2f, 0xd1, 0xcf, 0xbd, 0x18, 0xcb, 0xaf, 0xbd,
  0x21, 0xa6, 0xd3, 0xbd, 0x92, 0xe5, 0x85, 0xbe, 0x15, 0x83, 0x08, 0x3e,
  0x45, 0x55, 0x76, 0x3e, 0x5c, 0xae, 0x70, 0xbe, 0x9b, 0x5c, 0x35, 0x3e,
  0xd8, 0x74, 0x44, 0x3e, 0x76, 0x23, 0xea, 0xbc, 0xb2, 0xb0, 0xe5, 0x3d,
  0x9b, 0xb4, 0x83, 0xbe, 0x0b, 0x1a, 0xc1, 0x3d, 0x89, 0x4a, 0x31, 0xbe,
  0x4f, 0x4d, 0x2f, 0x3e, 0x69, 0x2d, 0x80, 0x3c, 0x6d, 0x24, 0xcc, 0xbe,
  0x46, 0x64, 0x26, 0x3e, 0xae, 0x77, 0x9c, 0xbe, 0x83, 0x31, 0xa6, 0xbe,
  0x88, 0x0b, 0x77, 0xbe, 0x36, 0x38, 0xd5, 0x3d, 0xf2, 0x01, 0x03, 0xbd,
  0xad, 0x22, 0x7b, 0xbe, 0x02, 0xcf, 0x79, 0xbd, 0x96, 0xba, 0x46, 0x3d,
  0x78, 0x2d, 0xb8, 0x3d, 0x31, 0x7c, 0x08, 0xbe, 0x58, 0x7d, 0xa4, 0xbc,
  0xeb, 0x82, 0xed, 0x3b, 0x4a, 0x4d, 0x86, 0x3d, 0xeb, 0xe8, 0xa7, 0xbe,
  0x3f, 0x90, 0xd1, 0xbd, 0x79, 0xef, 0x28, 0x3e, 0xa9, 0x43, 0x9d, 0xbd,
  0x10, 0xf1, 0xdf, 0x3d, 0xdc, 0xed, 0xc3, 0xbd, 0x85, 0x1e, 0x08, 0x3e,
  0xe1, 0x88, 0x01, 0x3d, 0xe0, 0x1e, 0x8f, 0xbe, 0xba, 0xbd, 0x66, 0x3e,
  0x90, 0x95, 0x22, 0x3e, 0x85, 0x3d, 0x23, 0xbc, 0xbd, 0xbb, 0x5f, 0x3d,
  0x86, 0xf1, 0xec, 0xbd, 0xfd, 0x15, 0x45, 0xbe, 0x26, 0xb5, 0x37, 0xbe,
  0x4b, 0x07, 0xd9, 0x3d, 0x6b, 0x08, 0x3c, 0x3e, 0x2f, 0x54, 0x03, 0xbc,
  0x90, 0xe1, 0x9c, 0xbe, 0xa4, 0xd2, 0x02, 0xbd, 0x5c, 0x4e, 0x0c, 0xbe,
  0x06, 0x6d, 0x1a, 0x3e, 0x69, 0x44, 0x35, 0xbe, 0xb1, 0xf9, 0xf0, 0x3d,
  0xe4, 0x28, 0x01, 0xbe, 0x1f, 0xcc, 0xa4, 0xbe, 0xed, 0x26, 0xdf, 0xbc,
  0x7f, 0x25, 0x3c, 0xbb, 0xd0, 0xc3, 0x18, 0xbd, 0x8d, 0x9b, 0x34, 0xbe,
  0x76, 0xb0, 0xdc, 0xbd, 0x15, 0x38, 0x53, 0x3d, 0xe5, 0xc8, 0xc2, 0xbe,
  0xf0, 0x60, 0xd2, 0xbd, 0x96, 0x9c, 0x6f, 0xbd, 0xc0, 0xcc, 0xb3, 0x3d,
  0x7d, 0x3c, 0x7e, 0xbe, 0xa0, 0x44, 0x7c, 0x3c, 0xe8, 0xca, 0x33, 0xbd,
  0xa4, 0x8b, 0xde, 0x3d, 0x80, 0x80, 0xa4, 0x3d, 0x80, 0x05, 0x2a, 0x3b,
  0x12, 0x56, 0x81, 0xbe, 0x72, 0xfc, 0x13, 0x3e, 0x70, 0xde, 0xc6, 0xbd,
  0x11, 0x2d, 0x54, 0xbe, 0xec, 0x93, 0x02, 0x3e, 0xb0, 0xdc, 0xa3, 0x3c,
  0xd4, 0x27, 0x08, 0xbd, 0xc2, 0x85, 0xb7, 0xbd, 0x8e, 0x67, 0x86, 0xbe,
  0x60, 0xe3, 0xc0, 0xbc, 0x00, 0x1d, 0xca, 0x3c, 0xaa, 0xe3, 0x99, 0xbd,
  0xe4, 0x12, 0x74, 0xbd, 0xe0, 0x08, 0x65, 0xbd, 0xa8, 0x5c, 0x4b, 0x3e,
  0xf8, 0xa2, 0x19, 0x3e, 0x80, 0x94, 0x95, 0xbc, 0xbc, 0x8d, 0xed, 0x3d,
  0xda, 0x37, 0x15, 0x3e, 0x62, 0xb0, 0x30, 0xbe, 0x6e, 0x66, 0xe2, 0xbd,
  0x6e, 0xe2, 0x43, 0x3e, 0x08, 0x55, 0x4a, 0x3e, 0xc6, 0x5e, 0x17, 0x3e,
  0xf8, 0x20, 0x0c, 0x3e, 0x80, 0x85, 0x43, 0x3d, 0xa8, 0x6d, 0x44, 0xbe,
  0xa4, 0xb5, 0x17, 0xbe, 0xda, 0x8f, 0x2b, 0x3e, 0x88, 0x12, 0x10, 0x3d,
  0xac, 0xfe, 0x56, 0x3e, 0xca, 0x81, 0xc4, 0xbd, 0x2f, 0x05, 0x24, 0xbe,
  0x98, 0x4e, 0x89, 0xbe, 0x9e, 0x11, 0x88, 0xbd, 0x34, 0x35, 0x8a, 0xbd,
  0xc0, 0xab, 0xed, 0xbc, 0x40, 0x68, 0x89, 0x3c, 0x02, 0xdc, 0xf0, 0xbd,
  0x62, 0xb8, 0x59, 0x3e, 0x66, 0xaf, 0xba, 0xbd, 0xe6, 0x0b, 0xdc, 0xbd,
  0x40, 0x7f, 0x01, 0x3e, 0x8c, 0x6c, 0x13, 0x3e, 0x15, 0x68, 0x24, 0xbe,
  0x84, 0xa1, 0x48, 0xbd, 0xd9, 0x61, 0x09, 0xbe, 0x00, 0x60, 0x1e, 0xba,
  0x30, 0x9e, 0x11, 0xbe, 0xdb, 0x18, 0x71, 0xbe, 0x9e, 0x45, 0x57, 0x3e,
  0xe6, 0x4b, 0x45, 0x3e, 0xa2, 0x1b, 0x82, 0x3e, 0x9b, 0x4b, 0x5a, 0xbe,
  0x2a, 0x53, 0x39, 0x3e, 0x8c, 0xb1, 0x06, 0x3e, 0xa7, 0xfa, 0x15, 0xbe,
  0x08, 0x1b, 0x3c, 0xbe, 0x5c, 0xb9, 0x40, 0x3e, 0x53, 0x93, 0x88, 0xbe,
  0xd4, 0xbf, 0xd7, 0xbd, 0xc0, 0x00, 0xa7, 0x3c, 0x74, 0x13, 0x61, 0xbd,
  0x78, 0x35, 0xb9, 0xbd, 0x30, 0xd6, 0x94, 0xbc, 0x90, 0x23, 0x85, 0xbe,
  0xfc, 0x32, 0x6a, 0x3e, 0x28, 0x82, 0xd9, 0xbc, 0x78, 0x5d, 0xc8, 0xbd,
  0x80, 0x32, 0x07, 0xbb, 0x10, 0xb9, 0x83, 0x3e, 0x28, 0xbe, 0x1a, 0x3e,
  0xb2, 0xba, 0x38, 0xbe, 0x74, 0x24, 0x3b, 0xbe, 0x7c, 0x94, 0x15, 0xbe,
  0xdb, 0x8a, 0x80, 0xbe, 0x50, 0x4c, 0xdd, 0x3c, 0x26, 0xd2, 0x81, 0x3e,
  0x14, 0x4b, 0xd6, 0x3d, 0x70, 0xb1, 0x1a, 0xbe, 0xf7, 0x85, 0x0d, 0xbe,
  0x2c, 0x4b, 0x77, 0x3e, 0x7a, 0x14, 0x0c, 0x3e, 0x8c, 0x34, 0x7b, 0x3e,
  0x3a, 0xdc, 0xbc, 0xbd, 0xc4, 0xe9, 0x1c, 0xbd, 0xd4, 0x68, 0x85, 0xbd,
  0xd9, 0x78, 0x3e, 0xbe, 0x10, 0x55, 0x35, 0xbd, 0x22, 0xfe, 0xff, 0xff,
  0x10, 0x00, 0x00, 0x00, 0x05, 0x00, 0x00, 0x00, 0x14, 0x00, 0x00, 0x00,
  0x2c, 0x00, 0x00, 0x00, 0x02, 0x00, 0x00, 0x00, 0x30, 0x00, 0x00, 0x00,
  0x20, 0x00, 0x00, 0x00, 0x17, 0x00, 0x00, 0x00, 0x73, 0x65, 0x71, 0x75,
  0x65, 0x6e, 0x74, 0x69, 0x61, 0x6c, 0x2f, 0x64, 0x65, 0x6e, 0x73, 0x65,
  0x2f, 0x4d, 0x61, 0x74, 0x4d, 0x75, 0x6c, 0x00, 0xb0, 0xfd, 0xff, 0xff,
  0x7e, 0xfe, 0xff, 0xff, 0x04, 0x00, 0x00, 0x00, 0xc0, 0x00, 0x00, 0x00,
  0x9f, 0xf2, 0xac, 0xbd, 0x00, 0x00, 0x00, 0x00, 0x00, 0x00, 0x00, 0x00,
  0x1a, 0x95, 0x91, 0xbd, 0x63, 0x3f, 0x1c, 0xbd, 0x1a, 0x7f, 0x9c, 0xba,
  0xb9, 0x4c, 0x7f, 0xbd, 0x42, 0xf4, 0xf3, 0xbc, 0x83, 0xba, 0xa6, 0xbd,
  0x00, 0x00, 0x00, 0x00, 0x83, 0x55, 0xc7, 0xbd, 0x00, 0x00, 0x00, 0x00,
  0xcd, 0x0a, 0xdb, 0xbd, 0x92, 0xa1, 0x1a, 0xbe, 0x00, 0x00, 0x00, 0x00,
  0x98, 0xa6, 0xa5, 0xbd, 0x00, 0x00, 0x00, 0x00, 0x00, 0x00, 0x00, 0x00,
  0xc8, 0xd2, 0x5e, 0xbc, 0x00, 0x00, 0x00, 0x00, 0x87, 0x5e, 0x03, 0xbc,
  0x28, 0xbc, 0xfd, 0xbc, 0x00, 0x00, 0x00, 0x00, 0x44, 0xcf, 0xc5, 0xbd,
  0x00, 0x00, 0x00, 0x00, 0x81, 0x4b, 0x7e, 0xbb, 0x4c, 0x57, 0xcc, 0x3d,
  0xb8, 0xfc, 0x00, 0x3c, 0x3f, 0x48, 0x94, 0xbd, 0x00, 0x00, 0x00, 0x00,
  0x0e, 0x15, 0x01, 0xbb, 0x2a, 0xcf, 0x16, 0xbc, 0xb3, 0x1f, 0x13, 0xbc,
  0x00, 0x00, 0x00, 0x00, 0x00, 0x00, 0x00, 0x00, 0x00, 0x00, 0x00, 0x00,
  0x48, 0xa6, 0x1f, 0xbc, 0x71, 0xb7, 0xad, 0xbb, 0x43, 0x88, 0xf9, 0xbb,
  0xff, 0xff, 0xbc, 0xbc, 0x93, 0x86, 0x83, 0xbd, 0x11, 0x03, 0x5a, 0xbd,
  0xd7, 0xc2, 0xc6, 0x3b, 0x26, 0xb9, 0x95, 0xbd, 0xe9, 0x1e, 0x99, 0xbd,
  0x00, 0x00, 0x00, 0x00, 0x00, 0x00, 0x00, 0x00, 0x00, 0x00, 0x00, 0x00,
  0x2e, 0xff, 0xff, 0xff, 0x10, 0x00, 0x00, 0x00, 0x04, 0x00, 0x00, 0x00,
  0x10, 0x00, 0x00, 0x00, 0x1c, 0x00, 0x00, 0x00, 0x01, 0x00, 0x00, 0x00,
  0x30, 0x00, 0x00, 0x00, 0x0a, 0x00, 0x00, 0x00, 0x64, 0x65, 0x6e, 0x73,
  0x65, 0x2f, 0x62, 0x69, 0x61, 0x73, 0x00, 0x00, 0xac, 0xfe, 0xff, 0xff,
  0x7a, 0xff, 0xff, 0xff, 0x04, 0x00, 0x00, 0x00, 0x40, 0x00, 0x00, 0x00,
  0xef, 0x0a, 0x1c, 0xbe, 0x10, 0xaa, 0x3a, 0xbd, 0xb0, 0x26, 0xc4, 0xbd,
  0x3f, 0xeb, 0xe7, 0xbe, 0x74, 0xb7, 0x94, 0x3d, 0x73, 0xf4, 0x9f, 0xbd,
  0x82, 0xd5, 0x22, 0xbe, 0x29, 0xf8, 0x2e, 0xbe, 0x74, 0xa3, 0x25, 0xbd,
  0x98, 0x06, 0xc0, 0xbd, 0x2c, 0x91, 0x80, 0xbe, 0x90, 0x5a, 0x29, 0xbe,
  0xc8, 0x71, 0xb4, 0xbd, 0x5c, 0x79, 0xdf, 0xbd, 0xc7, 0x31, 0x92, 0xbb,
  0x97, 0xe2, 0x45, 0xbe, 0xaa, 0xff, 0xff, 0xff, 0x10, 0x00, 0x00, 0x00,
  0x03, 0x00, 0x00, 0x00, 0x10, 0x00, 0x00, 0x00, 0x24, 0x00, 0x00, 0x00,
  0x01, 0x00, 0x00, 0x00, 0x10, 0x00, 0x00, 0x00, 0x0c, 0x00, 0x00, 0x00,
  0x64, 0x65, 0x6e, 0x73, 0x65, 0x5f, 0x31, 0x2f, 0x62, 0x69, 0x61, 0x73,
  0x00, 0x00, 0x00, 0x00, 0x04, 0x00, 0x06, 0x00, 0x04, 0x00, 0x00, 0x00,
  0x00, 0x00, 0x06, 0x00, 0x08, 0x00, 0x04, 0x00, 0x06, 0x00, 0x00, 0x00,
  0x04, 0x00, 0x00, 0x00, 0x08, 0x00, 0x00, 0x00, 0xa7, 0x12, 0x07, 0xc0,
  0xa6, 0x12, 0x07, 0x40, 0x00, 0x00, 0x0e, 0x00, 0x14, 0x00, 0x04, 0x00,
  0x00, 0x00, 0x08, 0x00, 0x0c, 0x00, 0x10, 0x00, 0x0e, 0x00, 0x00, 0x00,
  0x10, 0x00, 0x00, 0x00, 0x02, 0x00, 0x00, 0x00, 0x10, 0x00, 0x00, 0x00,
  0x20, 0x00, 0x00, 0x00, 0x01, 0x00, 0x00, 0x00, 0x02, 0x00, 0x00, 0x00,
  0x0c, 0x00, 0x00, 0x00, 0x64, 0x65, 0x6e, 0x73, 0x65, 0x5f, 0x32, 0x2f,
  0x62, 0x69, 0x61, 0x73, 0x00, 0x00, 0x00, 0x00, 0x90, 0xff, 0xff, 0xff,
  0x14, 0x00, 0x18, 0x00, 0x04, 0x00, 0x00, 0x00, 0x08, 0x00, 0x0c, 0x00,
  0x10, 0x00, 0x00, 0x00, 0x00, 0x00, 0x14, 0x00, 0x14, 0x00, 0x00, 0x00,
  0x14, 0x00, 0x00, 0x00, 0x01, 0x00, 0x00, 0x00, 0x18, 0x00, 0x00, 0x00,
  0x44, 0x00, 0x00, 0x00, 0x34, 0x00, 0x00, 0x00, 0x02, 0x00, 0x00, 0x00,
  0x01, 0x00, 0x00, 0x00, 0x20, 0x00, 0x00, 0x00, 0x1d, 0x00, 0x00, 0x00,
  0x73, 0x65, 0x72, 0x76, 0x69, 0x6e, 0x67, 0x5f, 0x64, 0x65, 0x66, 0x61,
  0x75, 0x6c, 0x74, 0x5f, 0x64, 0x65, 0x6e, 0x73, 0x65, 0x5f, 0x69, 0x6e,
  0x70, 0x75, 0x74, 0x3a, 0x30, 0x00, 0x00, 0x00, 0x02, 0x00, 0x00, 0x00,
  0xff, 0xff, 0xff, 0xff, 0x20, 0x00, 0x00, 0x00, 0xfc, 0xff, 0xff, 0xff,
  0x04, 0x00, 0x04, 0x00, 0x04, 0x00, 0x00, 0x00
};
